{
  "0": "\u0000",
  "1": "\u0001",
  "2": "\u0002",
  "3": "\u0003",
  "4": "\u0004",
  "5": "\u0005",
  "6": "\u0006",
  "7": "\u0007",
  "8": "\b",
  "9": "\t",
  "10": "\n",
  "11": "\u000b",
  "12": "\f",
  "13": "\r",
  "14": "\u000e",
  "15": "\u000f",
  "16": "\u0010",
  "17": "\u0011",
  "18": "\u0012",
  "19": "\u0013",
  "20": "\u0014",
  "21": "\u0015",
  "22": "\u0016",
  "23": "\u0017",
  "24": "\u0018",
  "25": "\u0019",
  "26": "\u001a",
  "27": "\u001b",
  "28": "\u001c",
  "29": "\u001d",
  "30": "\u001e",
  "31": "\u001f",
  "32": " ",
  "33": "!",
  "34": "\"",
  "35": "#",
  "36": "$",
  "37": "%",
  "38": "&",
  "39": "'",
  "40": "(",
  "41": ")",
  "42": "*",
  "43": "+",
  "44": ",",
  "45": "-",
  "46": ".",
  "47": "/",
  "48": "0",
  "49": "1",
  "50": "2",
  "51": "3",
  "52": "4",
  "53": "5",
  "54": "6",
  "55": "7",
  "56": "8",
  "57": "9",
  "58": ":",
  "59": ";",
  "60": "<",
  "61": "=",
  "62": ">",
  "63": "?",
  "64": "@",
  "65": "A",
  "66": "B",
  "67": "C",
  "68": "D",
  "69": "E",
  "70": "F",
  "71": "G",
  "72": "H",
  "73": "I",
  "74": "J",
  "75": "K",
  "76": "L",
  "77": "M",
  "78": "N",
  "79": "O",
  "80": "P",
  "81": "Q",
  "82": "R",
  "83": "S",
  "84": "T",
  "85": "U",
  "86": "V",
  "87": "W",
  "88": "X",
  "89": "Y",
  "90": "Z",
  "91": "[",
  "92": "\\",
  "93": "]",
  "94": "^",
  "95": "_",
  "96": "`",
  "97": "a",
  "98": "b",
  "99": "c",
  "100": "d",
  "101": "e",
  "102": "f",
  "103": "g",
  "104": "h",
  "105": "i",
  "106": "j",
  "107": "k",
  "108": "l",
  "109": "m",
  "110": "n",
  "111": "o",
  "112": "p",
  "113": "q",
  "114": "r",
  "115": "s",
  "116": "t",
  "117": "u",
  "118": "v",
  "119": "w",
  "120": "x",
  "121": "y",
  "122": "z",
  "123": "{",
  "124": "|",
  "125": "}",
  "126": "~",
  "127": "",
  "128": "�",
  "129": "�",
  "130": "�",
  "131": "�",
  "132": "�",
  "133": "�",
  "134": "�",
  "135": "�",
  "136": "�",
  "137": "�",
  "138": "�",
  "139": "�",
  "140": "�",
  "141": "�",
  "142": "�",
  "143": "�",
  "144": "�",
  "145": "�",
  "146": "�",
  "147": "�",
  "148": "�",
  "149": "�",
  "150": "�",
  "151": "�",
  "152": "�",
  "153": "�",
  "154": "�",
  "155": "�",
  "156": "�",
  "157": "�",
  "158": "�",
  "159": "�",
  "160": "�",
  "161": "�",
  "162": "�",
  "163": "�",
  "164": "�",
  "165": "�",
  "166": "�",
  "167": "�",
  "168": "�",
  "169": "�",
  "170": "�",
  "171": "�",
  "172": "�",
  "173": "�",
  "174": "�",
  "175": "�",
  "176": "�",
  "177": "�",
  "178": "�",
  "179": "�",
  "180": "�",
  "181": "�",
  "182": "�",
  "183": "�",
  "184": "�",
  "185": "�",
  "186": "�",
  "187": "�",
  "188": "�",
  "189": "�",
  "190": "�",
  "191": "�",
  "192": "�",
  "193": "�",
  "194": "�",
  "195": "�",
  "196": "�",
  "197": "�",
  "198": "�",
  "199": "�",
  "200": "�",
  "201": "�",
  "202": "�",
  "203": "�",
  "204": "�",
  "205": "�",
  "206": "�",
  "207": "�",
  "208": "�",
  "209": "�",
  "210": "�",
  "211": "�",
  "212": "�",
  "213": "�",
  "214": "�",
  "215": "�",
  "216": "�",
  "217": "�",
  "218": "�",
  "219": "�",
  "220": "�",
  "221": "�",
  "222": "�",
  "223": "�",
  "224": "�",
  "225": "�",
  "226": "�",
  "227": "�",
  "228": "�",
  "229": "�",
  "230": "�",
  "231": "�",
  "232": "�",
  "233": "�",
  "234": "�",
  "235": "�",
  "236": "�",
  "237": "�",
  "238": "�",
  "239": "�",
  "240": "�",
  "241": "�",
  "242": "�",
  "243": "�",
  "244": "�",
  "245": "�",
  "246": "�",
  "247": "�",
  "248": "�",
  "249": "�",
  "250": "�",
  "251": "�",
  "252": "�",
  "253": "�",
  "254": "�",
  "255": "�",
  "256": "<|endoftext|>",
  "257": " t",
  "258": " a",
  "259": "in",
  "260": "re",
  "261": "he",
  "262": "on",
  "263": "at",
  "264": " s",
  "265": " the",
  "266": " c",
  "267": " o",
  "268": "en",
  "269": " ,",
  "270": " p",
  "271": "er",
  "272": "ed",
  "273": " in",
  "274": "al",
  "275": " w",
  "276": " an",
  "277": "it",
  "278": " m",
  "279": " \n",
  "280": " of",
  "281": "es",
  "282": "or",
  "283": " f",
  "284": "ion",
  "285": " d",
  "286": " .",
  "287": "ic",
  "288": "is",
  "289": " b",
  "290": "an",
  "291": " and",
  "292": "as",
  "293": "ro",
  "294": "ar",
  "295": "ent",
  "296": "ing",
  "297": "ct",
  "298": " re",
  "299": " e",
  "300": "le",
  "301": " (",
  "302": " to",
  "303": " )",
  "304": " h",
  "305": " n",
  "306": " th",
  "307": "ation",
  "308": "us",
  "309": "ve",
  "310": " l",
  "311": "om",
  "312": " -",
  "313": "ly",
  "314": "ul",
  "315": " g",
  "316": "os",
  "317": "et",
  "318": "im",
  "319": "ig",
  "320": "ur",
  "321": "id",
  "322": " st",
  "323": "ith",
  "324": "ol",
  "325": " with",
  "326": " 1",
  "327": "ce",
  "328": "ere",
  "329": "un",
  "330": "ra",
  "331": " for",
  "332": "il",
  "333": "ut",
  "334": "ot",
  "335": "if",
  "336": " as",
  "337": " con",
  "338": "el",
  "339": " v",
  "340": "ow",
  "341": " was",
  "342": " pro",
  "343": " is",
  "344": " 2",
  "345": "res",
  "346": " be",
  "347": " al",
  "348": "ect",
  "349": "ati",
  "350": "ter",
  "351": "um",
  "352": "ch",
  "353": "am",
  "354": " on",
  "355": " ex",
  "356": "st",
  "357": "od",
  "358": "ab",
  "359": "ated",
  "360": " r",
  "361": " that",
  "362": " de",
  "363": "ud",
  "364": "iv",
  "365": " were",
  "366": "ir",
  "367": "ical",
  "368": "ents",
  "369": " su",
  "370": "ate",
  "371": "ity",
  "372": "op",
  "373": "oc",
  "374": " com",
  "375": "ant",
  "376": "ag",
  "377": " or",
  "378": "ure",
  "379": " res",
  "380": " by",
  "381": "her",
  "382": "ist",
  "383": "est",
  "384": "og",
  "385": "qu",
  "386": "ment",
  "387": " at",
  "388": "ib",
  "389": "ver",
  "390": "ive",
  "391": " se",
  "392": "rom",
  "393": " us",
  "394": "ort",
  "395": " pati",
  "396": "th",
  "397": "ial",
  "398": "ad",
  "399": "ies",
  "400": "up",
  "401": "ac",
  "402": " wh",
  "403": "ay",
  "404": "ain",
  "405": " ch",
  "406": "se",
  "407": "ell",
  "408": " 3",
  "409": " are",
  "410": " comp",
  "411": " inc",
  "412": "act",
  "413": " stud",
  "414": "em",
  "415": "pt",
  "416": " ad",
  "417": "ess",
  "418": "00",
  "419": "ore",
  "420": " im",
  "421": "ase",
  "422": " from",
  "423": " he",
  "424": " sh",
  "425": "ult",
  "426": " per",
  "427": "pe",
  "428": "ine",
  "429": "ip",
  "430": " ne",
  "431": " patients",
  "432": " this",
  "433": " le",
  "434": "igh",
  "435": "und",
  "436": " pre",
  "437": "ff",
  "438": "iz",
  "439": "orm",
  "440": "ign",
  "441": " cont",
  "442": "pl",
  "443": "ph",
  "444": "ific",
  "445": "du",
  "446": "ers",
  "447": " not",
  "448": " k",
  "449": "ous",
  "450": " ac",
  "451": " we",
  "452": "ction",
  "453": " it",
  "454": "ress",
  "455": " dis",
  "456": "per",
  "457": "port",
  "458": " ;",
  "459": " en",
  "460": "ge",
  "461": " co",
  "462": " 4",
  "463": "ia",
  "464": " cell",
  "465": " 0",
  "466": " int",
  "467": " 5",
  "468": " gro",
  "469": " ha",
  "470": "ys",
  "471": " tr",
  "472": "ations",
  "473": "vel",
  "474": "ost",
  "475": "are",
  "476": " di",
  "477": "ast",
  "478": " me",
  "479": " /",
  "480": " inf",
  "481": "ence",
  "482": "ition",
  "483": "art",
  "484": "able",
  "485": " cl",
  "486": "iff",
  "487": " can",
  "488": "ug",
  "489": "ich",
  "490": "ther",
  "491": " diff",
  "492": "ans",
  "493": " study",
  "494": " ass",
  "495": " sign",
  "496": " ap",
  "497": " ab",
  "498": "ens",
  "499": "ary",
  "500": " gen",
  "501": "eren",
  "502": " sc",
  "503": " sy",
  "504": "and",
  "505": "te",
  "506": " which",
  "507": " group",
  "508": " have",
  "509": "ular",
  "510": " ind",
  "511": "reat",
  "512": " bet",
  "513": " show",
  "514": "age",
  "515": "ard",
  "516": " ob",
  "517": "ative",
  "518": "we",
  "519": " pl",
  "520": "ight",
  "521": " y",
  "522": "ue",
  "523": " sub",
  "524": "ance",
  "525": "ri",
  "526": "ions",
  "527": "ors",
  "528": " ph",
  "529": "ear",
  "530": " all",
  "531": " differen",
  "532": "mon",
  "533": "ffect",
  "534": " un",
  "535": "olog",
  "536": " rec",
  "537": "ased",
  "538": " 6",
  "539": " af",
  "540": "ding",
  "541": " sur",
  "542": " inter",
  "543": "ide",
  "544": "ose",
  "545": " met",
  "546": "ween",
  "547": "ill",
  "548": " between",
  "549": "ory",
  "550": " ev",
  "551": "ced",
  "552": " whe",
  "553": "ap",
  "554": " act",
  "555": " reg",
  "556": "ved",
  "557": " these",
  "558": "pro",
  "559": " pres",
  "560": " resp",
  "561": " exp",
  "562": "uc",
  "563": "ari",
  "564": " fig",
  "565": "so",
  "566": " signific",
  "567": " :",
  "568": "ren",
  "569": " after",
  "570": "vi",
  "571": " anal",
  "572": "ak",
  "573": " [",
  "574": " =",
  "575": "ath",
  "576": " incre",
  "577": " result",
  "578": " been",
  "579": " sp",
  "580": " rel",
  "581": "cl",
  "582": "all",
  "583": "uld",
  "584": " ]",
  "585": " cons",
  "586": " mod",
  "587": " also",
  "588": "ugh",
  "589": " there",
  "590": " fo",
  "591": " pos",
  "592": " med",
  "593": " significant",
  "594": "ach",
  "595": " et",
  "596": " cells",
  "597": " has",
  "598": " 7",
  "599": " using",
  "600": " trans",
  "601": "low",
  "602": "one",
  "603": "rol",
  "604": "ual",
  "605": "end",
  "606": "pec",
  "607": " i",
  "608": " effect",
  "609": " more",
  "610": "erm",
  "611": "ome",
  "612": " hy",
  "613": " ar",
  "614": "form",
  "615": " part",
  "616": " ant",
  "617": " no",
  "618": " report",
  "619": " other",
  "620": " ra",
  "621": " level",
  "622": "oci",
  "623": "ases",
  "624": " treat",
  "625": " may",
  "626": "aus",
  "627": " than",
  "628": " incl",
  "629": " bl",
  "630": "dition",
  "631": " ro",
  "632": " det",
  "633": " dat",
  "634": "ub",
  "635": " sam",
  "636": " used",
  "637": "ied",
  "638": " acc",
  "639": " 9",
  "640": "ates",
  "641": "ces",
  "642": " tim",
  "643": "ression",
  "644": " fol",
  "645": " cor",
  "646": " 10",
  "647": " test",
  "648": " ag",
  "649": " tw",
  "650": " includ",
  "651": " 8",
  "652": "str",
  "653": "rib",
  "654": "lect",
  "655": " po",
  "656": "ree",
  "657": " spec",
  "658": "ass",
  "659": "oth",
  "660": "ility",
  "661": "out",
  "662": " treatment",
  "663": " j",
  "664": " inv",
  "665": " low",
  "666": " had",
  "667": " associ",
  "668": " activ",
  "669": "ject",
  "670": "inal",
  "671": " 20",
  "672": " qu",
  "673": " one",
  "674": "ond",
  "675": "na",
  "676": " dur",
  "677": "ong",
  "678": "ater",
  "679": " how",
  "680": " und",
  "681": " col",
  "682": " studies",
  "683": " high",
  "684": " vari",
  "685": " str",
  "686": " but",
  "687": " data",
  "688": " follow",
  "689": " dise",
  "690": "cc",
  "691": "osis",
  "692": "ized",
  "693": " analys",
  "694": " mic",
  "695": " val",
  "696": " their",
  "697": " up",
  "698": "yl",
  "699": " man",
  "700": "unction",
  "701": "ros",
  "702": " des",
  "703": " two",
  "704": "ures",
  "705": "iss",
  "706": " our",
  "707": "red",
  "708": " am",
  "709": "ple",
  "710": "ulation",
  "711": " different",
  "712": "ood",
  "713": " out",
  "714": "\t\t",
  "715": " clin",
  "716": "tein",
  "717": " 200",
  "718": " such",
  "719": "cy",
  "720": "ever",
  "721": "ang",
  "722": " control",
  "723": "agn",
  "724": " mon",
  "725": "entr",
  "726": " year",
  "727": " fact",
  "728": " under",
  "729": " over",
  "730": "ile",
  "731": "cer",
  "732": "ke",
  "733": " patient",
  "734": "ared",
  "735": " ser",
  "736": "ser",
  "737": " figure",
  "738": "ace",
  "739": "ating",
  "740": "tain",
  "741": " min",
  "742": " time",
  "743": " ty",
  "744": " cy",
  "745": " heal",
  "746": " gl",
  "747": "ym",
  "748": " cr",
  "749": " dep",
  "750": "ber",
  "751": " however",
  "752": " present",
  "753": " sim",
  "754": " perform",
  "755": " protein",
  "756": "ined",
  "757": "ms",
  "758": " ext",
  "759": " bi",
  "760": "ite",
  "761": " pr",
  "762": " reported",
  "763": " both",
  "764": " syst",
  "765": "der",
  "766": " partic",
  "767": "ection",
  "768": " results",
  "769": "ery",
  "770": "cept",
  "771": "ons",
  "772": " during",
  "773": "ered",
  "774": " meas",
  "775": " health",
  "776": "ically",
  "777": "ts",
  "778": " so",
  "779": "ail",
  "780": "velop",
  "781": " ris",
  "782": " function",
  "783": "ted",
  "784": "ep",
  "785": " mm",
  "786": " system",
  "787": "ould",
  "788": " dec",
  "789": "ew",
  "790": "itive",
  "791": " tra",
  "792": "ues",
  "793": " num",
  "794": " only",
  "795": " each",
  "796": " who",
  "797": " develop",
  "798": " obser",
  "799": "ics",
  "800": " most",
  "801": "ution",
  "802": " }",
  "803": "ause",
  "804": " disease",
  "805": " def",
  "806": " dist",
  "807": " analysis",
  "808": " sm",
  "809": "ident",
  "810": " stat",
  "811": "ft",
  "812": "tal",
  "813": "mun",
  "814": "ox",
  "815": " te",
  "816": " found",
  "817": "lu",
  "818": " redu",
  "819": "hes",
  "820": " sup",
  "821": "ob",
  "822": " 12",
  "823": " em",
  "824": "atory",
  "825": " meth",
  "826": " risk",
  "827": " appro",
  "828": "rap",
  "829": "ective",
  "830": " when",
  "831": " diagn",
  "832": " dr",
  "833": "fore",
  "834": "gg",
  "835": " day",
  "836": " end",
  "837": "ormal",
  "838": " age",
  "839": " form",
  "840": "cess",
  "841": " {",
  "842": " clinical",
  "843": "ild",
  "844": "ified",
  "845": " use",
  "846": "uct",
  "847": " table",
  "848": " hig",
  "849": "acter",
  "850": "arg",
  "851": "ici",
  "852": " exam",
  "853": " model",
  "854": " years",
  "855": " bec",
  "856": " 19",
  "857": " comple",
  "858": " ma",
  "859": "10",
  "860": "ract",
  "861": " compared",
  "862": " non",
  "863": " associated",
  "864": "ants",
  "865": " tum",
  "866": "hem",
  "867": " rem",
  "868": " levels",
  "869": "vent",
  "870": " showed",
  "871": "hed",
  "872": "ogra",
  "873": "ough",
  "874": "cular",
  "875": " into",
  "876": "inding",
  "877": " par",
  "878": "ogen",
  "879": " mo",
  "880": " fir",
  "881": " sec",
  "882": "ization",
  "883": "ange",
  "884": "ron",
  "885": " li",
  "886": "ital",
  "887": " they",
  "888": "ible",
  "889": " based",
  "890": "ium",
  "891": " well",
  "892": "les",
  "893": " exper",
  "894": "ack",
  "895": "ord",
  "896": "ments",
  "897": "ix",
  "898": " prov",
  "899": "ological",
  "900": " first",
  "901": " gener",
  "902": " cal",
  "903": "lic",
  "904": "unt",
  "905": " addition",
  "906": "gen",
  "907": "ric",
  "908": "ne",
  "909": " measure",
  "910": "0.",
  "911": "ination",
  "912": "ane",
  "913": "cul",
  "914": " path",
  "915": " its",
  "916": "ities",
  "917": " indic",
  "918": "val",
  "919": "br",
  "920": " pe",
  "921": " '",
  "922": " number",
  "923": " produ",
  "924": " cases",
  "925": " increased",
  "926": " mg",
  "927": "rain",
  "928": " ident",
  "929": " surg",
  "930": " car",
  "931": " groups",
  "932": " performed",
  "933": "imal",
  "934": "12",
  "935": " sugg",
  "936": " suggest",
  "937": "oid",
  "938": "urren",
  "939": "hib",
  "940": " if",
  "941": "vious",
  "942": " higher",
  "943": " mal",
  "944": "ature",
  "945": "ected",
  "946": " prog",
  "947": "di",
  "948": " mean",
  "949": " blood",
  "950": " ins",
  "951": "rapy",
  "952": "our",
  "953": "atic",
  "954": " post",
  "955": " fur",
  "956": " could",
  "957": " method",
  "958": "ograph",
  "959": "ork",
  "960": " loc",
  "961": " do",
  "962": " conc",
  "963": "ust",
  "964": "ute",
  "965": "ok",
  "966": " further",
  "967": " ml",
  "968": " occ",
  "969": " mult",
  "970": " gra",
  "971": " observed",
  "972": " est",
  "973": "ential",
  "974": " 15",
  "975": " shown",
  "976": "ally",
  "977": "rough",
  "978": " import",
  "979": "amm",
  "980": "av",
  "981": " corre",
  "982": " previous",
  "983": "ilar",
  "984": "idence",
  "985": " ref",
  "986": "ice",
  "987": " consid",
  "988": " due",
  "989": " where",
  "990": " expression",
  "991": " conf",
  "992": " <",
  "993": " tiss",
  "994": " ep",
  "995": " sol",
  "996": " subject",
  "997": " some",
  "998": "now",
  "999": " case",
  "1000": " normal",
  "1001": "ivid",
  "1002": " cancer",
  "1003": "ody",
  "1004": " similar",
  "1005": " those",
  "1006": " indu",
  "1007": "ology",
  "1008": " month",
  "1009": "ability",
  "1010": "ality",
  "1011": "tern",
  "1012": " att",
  "1013": "ize",
  "1014": "oma",
  "1015": "ently",
  "1016": " through",
  "1017": " type",
  "1018": " three",
  "1019": "ism",
  "1020": " pop",
  "1021": "alu",
  "1022": "ex",
  "1023": "int",
  "1024": "11",
  "1025": "ency",
  "1026": " rep",
  "1027": " evalu",
  "1028": " because",
  "1029": "mong",
  "1030": " among",
  "1031": "tic",
  "1032": " bas",
  "1033": "etic",
  "1034": " hist",
  "1035": " particip",
  "1036": " like",
  "1037": " significantly",
  "1038": " specific",
  "1039": " determ",
  "1040": " fe",
  "1041": "osp",
  "1042": " immun",
  "1043": " syn",
  "1044": " including",
  "1045": " pot",
  "1046": " pred",
  "1047": " assess",
  "1048": "ark",
  "1049": " prob",
  "1050": "tained",
  "1051": " desc",
  "1052": " total",
  "1053": "ek",
  "1054": " aut",
  "1055": "ps",
  "1056": " char",
  "1057": " activity",
  "1058": " hum",
  "1059": "osed",
  "1060": " prim",
  "1061": " decre",
  "1062": " impro",
  "1063": " rate",
  "1064": "ior",
  "1065": "usion",
  "1066": "ines",
  "1067": " phys",
  "1068": "ness",
  "1069": " cd",
  "1070": " concentr",
  "1071": "ages",
  "1072": " while",
  "1073": "ict",
  "1074": " effects",
  "1075": " care",
  "1076": " lower",
  "1077": "ov",
  "1078": " child",
  "1079": " within",
  "1080": " second",
  "1081": " factors",
  "1082": "min",
  "1083": "omen",
  "1084": " sym",
  "1085": " peri",
  "1086": " vis",
  "1087": " condition",
  "1088": "ound",
  "1089": "ise",
  "1090": " diab",
  "1091": "its",
  "1092": "ire",
  "1093": " z",
  "1094": " lim",
  "1095": " related",
  "1096": " term",
  "1097": " any",
  "1098": "oph",
  "1099": " ir",
  "1100": "ocy",
  "1101": "ily",
  "1102": "ptom",
  "1103": " av",
  "1104": "erg",
  "1105": " drug",
  "1106": " inhib",
  "1107": " imp",
  "1108": "iter",
  "1109": " invol",
  "1110": " poss",
  "1111": " know",
  "1112": " main",
  "1113": "ited",
  "1114": " mem",
  "1115": "led",
  "1116": "ational",
  "1117": "cop",
  "1118": " 30",
  "1119": "though",
  "1120": "ma",
  "1121": "ian",
  "1122": " ret",
  "1123": " struct",
  "1124": " tumor",
  "1125": " although",
  "1126": "sy",
  "1127": " important",
  "1128": " requ",
  "1129": " ol",
  "1130": " positive",
  "1131": "ry",
  "1132": " respective",
  "1133": " inform",
  "1134": " fre",
  "1135": " sever",
  "1136": " chang",
  "1137": " should",
  "1138": "ional",
  "1139": "ental",
  "1140": " sampl",
  "1141": " disc",
  "1142": "ds",
  "1143": "ural",
  "1144": "ording",
  "1145": " increase",
  "1146": " hyp",
  "1147": " 13",
  "1148": "lamm",
  "1149": " demon",
  "1150": " long",
  "1151": "chn",
  "1152": "ration",
  "1153": " demonstr",
  "1154": " finding",
  "1155": " character",
  "1156": " months",
  "1157": " stand",
  "1158": " hyper",
  "1159": "ung",
  "1160": " el",
  "1161": " ca",
  "1162": " intra",
  "1163": " without",
  "1164": "ividual",
  "1165": "ospital",
  "1166": " period",
  "1167": " process",
  "1168": "ired",
  "1169": "ie",
  "1170": "amet",
  "1171": " individual",
  "1172": " ear",
  "1173": " resear",
  "1174": "med",
  "1175": " statist",
  "1176": " need",
  "1177": "reated",
  "1178": " hospital",
  "1179": "nal",
  "1180": "ful",
  "1181": " then",
  "1182": " compar",
  "1183": " ed",
  "1184": " small",
  "1185": " respon",
  "1186": " 14",
  "1187": "ification",
  "1188": "ock",
  "1189": " init",
  "1190": "chan",
  "1191": "hel",
  "1192": " respectively",
  "1193": "hen",
  "1194": " describ",
  "1195": " values",
  "1196": " week",
  "1197": " 11",
  "1198": " did",
  "1199": "arge",
  "1200": " sequ",
  "1201": " symptom",
  "1202": " frequ",
  "1203": "urrent",
  "1204": " tissue",
  "1205": " new",
  "1206": "cle",
  "1207": "way",
  "1208": "itis",
  "1209": " response",
  "1210": "ption",
  "1211": " common",
  "1212": " potential",
  "1213": " hem",
  "1214": " techn",
  "1215": " dire",
  "1216": "action",
  "1217": "ardi",
  "1218": "ale",
  "1219": " according",
  "1220": " poly",
  "1221": " neu",
  "1222": " correl",
  "1223": "ores",
  "1224": "aining",
  "1225": " acid",
  "1226": " following",
  "1227": " micro",
  "1228": " set",
  "1229": " 25",
  "1230": "iqu",
  "1231": "plic",
  "1232": " inflamm",
  "1233": " ox",
  "1234": "ately",
  "1235": " mechan",
  "1236": "ake",
  "1237": " same",
  "1238": "ucle",
  "1239": " pa",
  "1240": " sens",
  "1241": " standard",
  "1242": "iven",
  "1243": " es",
  "1244": "over",
  "1245": "ived",
  "1246": "ram",
  "1247": " 100",
  "1248": " op",
  "1249": " therapy",
  "1250": " mole",
  "1251": "05",
  "1252": " lead",
  "1253": " work",
  "1254": "etes",
  "1255": " class",
  "1256": " women",
  "1257": " about",
  "1258": "ides",
  "1259": "par",
  "1260": " radi",
  "1261": " les",
  "1262": " prot",
  "1263": " human",
  "1264": " changes",
  "1265": "omy",
  "1266": " experim",
  "1267": "gan",
  "1268": " therefore",
  "1269": " gene",
  "1270": " signal",
  "1271": " subjects",
  "1272": "ival",
  "1273": " invest",
  "1274": "roph",
  "1275": " cyt",
  "1276": " less",
  "1277": "endent",
  "1278": " diagnosis",
  "1279": "ascular",
  "1280": " my",
  "1281": " occur",
  "1282": " elect",
  "1283": " obtained",
  "1284": " population",
  "1285": " antib",
  "1286": "ind",
  "1287": " mice",
  "1288": " il",
  "1289": "ially",
  "1290": "iver",
  "1291": " tem",
  "1292": " thus",
  "1293": " 16",
  "1294": " mut",
  "1295": " diabetes",
  "1296": " abs",
  "1297": " pain",
  "1298": " 18",
  "1299": "ting",
  "1300": " investig",
  "1301": " caus",
  "1302": " development",
  "1303": "ene",
  "1304": "13",
  "1305": "ving",
  "1306": " medical",
  "1307": " weight",
  "1308": "xim",
  "1309": " will",
  "1310": " 50",
  "1311": " anti",
  "1312": "lected",
  "1313": " lab",
  "1314": "erative",
  "1315": " mus",
  "1316": "ick",
  "1317": " 24",
  "1318": "de",
  "1319": "cr",
  "1320": "ulin",
  "1321": " samples",
  "1322": "iel",
  "1323": "arget",
  "1324": " line",
  "1325": " flu",
  "1326": " eff",
  "1327": " ii",
  "1328": "stit",
  "1329": " sin",
  "1330": " presence",
  "1331": " surgery",
  "1332": " before",
  "1333": " mot",
  "1334": "lis",
  "1335": " left",
  "1336": "view",
  "1337": " difference",
  "1338": " target",
  "1339": " included",
  "1340": "ivity",
  "1341": " consist",
  "1342": " vol",
  "1343": " would",
  "1344": " x",
  "1345": " differences",
  "1346": " days",
  "1347": " surf",
  "1348": "ins",
  "1349": " cle",
  "1350": " large",
  "1351": " research",
  "1352": "olic",
  "1353": " role",
  "1354": "veal",
  "1355": " support",
  "1356": " several",
  "1357": " neg",
  "1358": " children",
  "1359": "rop",
  "1360": " information",
  "1361": " lif",
  "1362": " grow",
  "1363": "eng",
  "1364": " fem",
  "1365": "14",
  "1366": " maj",
  "1367": "omet",
  "1368": " rat",
  "1369": " proced",
  "1370": " right",
  "1371": " affect",
  "1372": " major",
  "1373": "ade",
  "1374": "15",
  "1375": " equ",
  "1376": " ct",
  "1377": " comb",
  "1378": "ateg",
  "1379": " mat",
  "1380": " outc",
  "1381": " cm",
  "1382": "ten",
  "1383": " reveal",
  "1384": " fl",
  "1385": " mass",
  "1386": " range",
  "1387": " pers",
  "1388": "iple",
  "1389": " chem",
  "1390": " u",
  "1391": " treated",
  "1392": "cel",
  "1393": " pat",
  "1394": " recept",
  "1395": " direct",
  "1396": " serum",
  "1397": " described",
  "1398": " del",
  "1399": " participants",
  "1400": " cardi",
  "1401": " fib",
  "1402": "ha",
  "1403": " findings",
  "1404": "oss",
  "1405": " sample",
  "1406": " gluc",
  "1407": " ang",
  "1408": " considered",
  "1409": "ogn",
  "1410": " body",
  "1411": "anc",
  "1412": "ann",
  "1413": "ove",
  "1414": " expl",
  "1415": "uted",
  "1416": "cin",
  "1417": " sing",
  "1418": "duct",
  "1419": " rece",
  "1420": "\t\t\t\t",
  "1421": "000",
  "1422": " current",
  "1423": " symptoms",
  "1424": "oh",
  "1425": " value",
  "1426": " many",
  "1427": "vement",
  "1428": "fer",
  "1429": " sit",
  "1430": " repres",
  "1431": "ink",
  "1432": "sequ",
  "1433": " dna",
  "1434": "ening",
  "1435": "lev",
  "1436": " primary",
  "1437": " size",
  "1438": " complex",
  "1439": " calcul",
  "1440": "vere",
  "1441": "cent",
  "1442": "omes",
  "1443": " fam",
  "1444": " typ",
  "1445": " \n\t\t\t\t",
  "1446": " er",
  "1447": " nm",
  "1448": " count",
  "1449": " infection",
  "1450": "osph",
  "1451": " great",
  "1452": " press",
  "1453": "ify",
  "1454": " ve",
  "1455": "ross",
  "1456": "old",
  "1457": " negative",
  "1458": " medic",
  "1459": " analy",
  "1460": " vers",
  "1461": " score",
  "1462": " br",
  "1463": " brain",
  "1464": " stim",
  "1465": " factor",
  "1466": " single",
  "1467": "20",
  "1468": " relative",
  "1469": " mark",
  "1470": " four",
  "1471": " pub",
  "1472": "ables",
  "1473": "ensity",
  "1474": "af",
  "1475": "ck",
  "1476": " conditions",
  "1477": " +",
  "1478": " cap",
  "1479": " estim",
  "1480": "ety",
  "1481": "ves",
  "1482": "tes",
  "1483": " cent",
  "1484": " organ",
  "1485": " adj",
  "1486": "ences",
  "1487": " cat",
  "1488": " contr",
  "1489": "ension",
  "1490": "aging",
  "1491": " fat",
  "1492": " surv",
  "1493": " nucle",
  "1494": " early",
  "1495": " bone",
  "1496": " rati",
  "1497": "cs",
  "1498": "terior",
  "1499": "ained",
  "1500": " 95",
  "1501": " possible",
  "1502": " lip",
  "1503": " vir",
  "1504": "tion",
  "1505": " prom",
  "1506": "erc",
  "1507": " demonstrated",
  "1508": "operative",
  "1509": " resist",
  "1510": "ressed",
  "1511": " general",
  "1512": " being",
  "1513": "onal",
  "1514": " surface",
  "1515": "mit",
  "1516": " sk",
  "1517": " opt",
  "1518": " genes",
  "1519": " water",
  "1520": " arter",
  "1521": " 17",
  "1522": " proteins",
  "1523": " measured",
  "1524": " since",
  "1525": "ains",
  "1526": " insulin",
  "1527": " dose",
  "1528": "ateral",
  "1529": " area",
  "1530": " >",
  "1531": "otic",
  "1532": " avail",
  "1533": " inhibit",
  "1534": " induced",
  "1535": " bre",
  "1536": "elf",
  "1537": "ography",
  "1538": " vi",
  "1539": " quest",
  "1540": "ronic",
  "1541": " cult",
  "1542": "ither",
  "1543": " loss",
  "1544": "16",
  "1545": " dom",
  "1546": " lym",
  "1547": "ulated",
  "1548": "oty",
  "1549": "ator",
  "1550": " local",
  "1551": " add",
  "1552": "ining",
  "1553": "ams",
  "1554": " adv",
  "1555": " multiple",
  "1556": " lo",
  "1557": "cing",
  "1558": " identified",
  "1559": " animal",
  "1560": "row",
  "1561": " paramet",
  "1562": " lymph",
  "1563": " association",
  "1564": "ield",
  "1565": " her",
  "1566": " even",
  "1567": " glucose",
  "1568": " admin",
  "1569": " ent",
  "1570": " sl",
  "1571": " very",
  "1572": " plas",
  "1573": " metab",
  "1574": " hyd",
  "1575": " q",
  "1576": " predict",
  "1577": " revealed",
  "1578": " bel",
  "1579": " respons",
  "1580": " trial",
  "1581": " gu",
  "1582": " influ",
  "1583": " 199",
  "1584": "ount",
  "1585": " provid",
  "1586": " appe",
  "1587": " confir",
  "1588": " regard",
  "1589": " prof",
  "1590": "ient",
  "1591": "ty",
  "1592": "17",
  "1593": "hip",
  "1594": "verage",
  "1595": "hy",
  "1596": " vit",
  "1597": " known",
  "1598": "orph",
  "1599": " pressure",
  "1600": " evidence",
  "1601": " given",
  "1602": "acy",
  "1603": " oper",
  "1604": " sus",
  "1605": "arm",
  "1606": " reduced",
  "1607": "ax",
  "1608": "cri",
  "1609": " mater",
  "1610": " administ",
  "1611": "ument",
  "1612": " 40",
  "1613": " tak",
  "1614": "eline",
  "1615": "reg",
  "1616": "ivers",
  "1617": "cell",
  "1618": " pul",
  "1619": " ur",
  "1620": " preval",
  "1621": " cer",
  "1622": " analyz",
  "1623": " review",
  "1624": "ually",
  "1625": " cir",
  "1626": "other",
  "1627": " distrib",
  "1628": " order",
  "1629": " might",
  "1630": " fail",
  "1631": " severe",
  "1632": " contin",
  "1633": "raction",
  "1634": " defined",
  "1635": "25",
  "1636": " conduct",
  "1637": " prevent",
  "1638": " concentration",
  "1639": " fac",
  "1640": " complic",
  "1641": " again",
  "1642": " status",
  "1643": "iated",
  "1644": "asing",
  "1645": " ms",
  "1646": " hel",
  "1647": " particular",
  "1648": " growth",
  "1649": "ision",
  "1650": " reduction",
  "1651": "roscop",
  "1652": " history",
  "1653": "verse",
  "1654": "clud",
  "1655": " enh",
  "1656": " characterist",
  "1657": "eth",
  "1658": "icient",
  "1659": " allow",
  "1660": " bm",
  "1661": " comparis",
  "1662": " techniqu",
  "1663": " weeks",
  "1664": "li",
  "1665": " eth",
  "1666": " life",
  "1667": " contrast",
  "1668": "round",
  "1669": "gf",
  "1670": "18",
  "1671": " represent",
  "1672": "ission",
  "1673": "air",
  "1674": " pur",
  "1675": " final",
  "1676": " change",
  "1677": "eration",
  "1678": " pattern",
  "1679": "isms",
  "1680": " free",
  "1681": " complete",
  "1682": " activation",
  "1683": "ward",
  "1684": "ste",
  "1685": " isol",
  "1686": " volum",
  "1687": "plant",
  "1688": " pathway",
  "1689": " liver",
  "1690": "olar",
  "1691": "rs",
  "1692": "ning",
  "1693": "aren",
  "1694": " available",
  "1695": "lished",
  "1696": " criter",
  "1697": " either",
  "1698": "erest",
  "1699": " various",
  "1700": " stress",
  "1701": " previously",
  "1702": " membr",
  "1703": " intervent",
  "1704": " likely",
  "1705": "ont",
  "1706": "oral",
  "1707": " contrib",
  "1708": "bs",
  "1709": "19",
  "1710": " binding",
  "1711": "eg",
  "1712": " survival",
  "1713": " cost",
  "1714": "ral",
  "1715": " spect",
  "1716": " prop",
  "1717": " dys",
  "1718": " region",
  "1719": " kg",
  "1720": " inj",
  "1721": " centr",
  "1722": " pract",
  "1723": " muscle",
  "1724": "plement",
  "1725": " beha",
  "1726": " relations",
  "1727": " position",
  "1728": " phase",
  "1729": " baseline",
  "1730": "omic",
  "1731": "amin",
  "1732": " state",
  "1733": " physical",
  "1734": " sal",
  "1735": " ratio",
  "1736": " chronic",
  "1737": " followed",
  "1738": "vir",
  "1739": " inflammatory",
  "1740": " site",
  "1741": " surgical",
  "1742": " experi",
  "1743": "50",
  "1744": " scre",
  "1745": " behavi",
  "1746": " phosph",
  "1747": " mix",
  "1748": "orb",
  "1749": " percent",
  "1750": "ish",
  "1751": " another",
  "1752": "ole",
  "1753": " effective",
  "1754": " super",
  "1755": " adult",
  "1756": " decreased",
  "1757": " recent",
  "1758": " whether",
  "1759": " indep",
  "1760": " sex",
  "1761": "andom",
  "1762": " clear",
  "1763": " recom",
  "1764": "ended",
  "1765": " variables",
  "1766": " them",
  "1767": " presented",
  "1768": " da",
  "1769": " deg",
  "1770": " ey",
  "1771": " pri",
  "1772": " hep",
  "1773": " sw",
  "1774": " quant",
  "1775": "ections",
  "1776": " least",
  "1777": "ibility",
  "1778": " interest",
  "1779": "zym",
  "1780": " death",
  "1781": " hand",
  "1782": " old",
  "1783": " relationship",
  "1784": "ists",
  "1785": " diseases",
  "1786": " cause",
  "1787": "osure",
  "1788": " prevalence",
  "1789": " prol",
  "1790": "othe",
  "1791": " product",
  "1792": "aneous",
  "1793": " random",
  "1794": " lesions",
  "1795": " family",
  "1796": " energ",
  "1797": "oles",
  "1798": " inject",
  "1799": " examination",
  "1800": "001",
  "1801": " app",
  "1802": " average",
  "1803": "ull",
  "1804": " developed",
  "1805": " cort",
  "1806": " mort",
  "1807": " design",
  "1808": " structure",
  "1809": " calculated",
  "1810": " mac",
  "1811": "sych",
  "1812": " prior",
  "1813": " men",
  "1814": " neuro",
  "1815": " solution",
  "1816": " ver",
  "1817": " injur",
  "1818": " functional",
  "1819": " strong",
  "1820": " acute",
  "1821": " ke",
  "1822": " determined",
  "1823": " tub",
  "1824": " methods",
  "1825": "ns",
  "1826": "opl",
  "1827": "utes",
  "1828": "iving",
  "1829": " criteria",
  "1830": " appear",
  "1831": "ength",
  "1832": "ices",
  "1833": " approach",
  "1834": "of",
  "1835": "ca",
  "1836": " index",
  "1837": "ention",
  "1838": "22",
  "1839": " rates",
  "1840": " stage",
  "1841": " usa",
  "1842": " 60",
  "1843": " bacter",
  "1844": "els",
  "1845": " fil",
  "1846": "itivity",
  "1847": " temper",
  "1848": " proble",
  "1849": " mortality",
  "1850": " place",
  "1851": " hour",
  "1852": " greater",
  "1853": " overall",
  "1854": " gr",
  "1855": " ach",
  "1856": "ised",
  "1857": " seen",
  "1858": " individuals",
  "1859": "resp",
  "1860": " involved",
  "1861": " nod",
  "1862": " compon",
  "1863": " correlation",
  "1864": " oral",
  "1865": " ic",
  "1866": " quality",
  "1867": "ouse",
  "1868": " side",
  "1869": " ci",
  "1870": "hest",
  "1871": " conducted",
  "1872": " volume",
  "1873": " models",
  "1874": " succ",
  "1875": " cur",
  "1876": " soft",
  "1877": " neur",
  "1878": " initial",
  "1879": "ancy",
  "1880": " she",
  "1881": " resid",
  "1882": "ware",
  "1883": "30",
  "1884": " yo",
  "1885": " question",
  "1886": " self",
  "1887": " required",
  "1888": "anced",
  "1889": " whereas",
  "1890": " proper",
  "1891": " ut",
  "1892": "set",
  "1893": " receptor",
  "1894": "icity",
  "1895": " der",
  "1896": " sch",
  "1897": " bene",
  "1898": " above",
  "1899": "ensive",
  "1900": "ocytes",
  "1901": " off",
  "1902": " incidence",
  "1903": " labor",
  "1904": " frequency",
  "1905": " point",
  "1906": " polym",
  "1907": " react",
  "1908": "ious",
  "1909": " containing",
  "1910": "viron",
  "1911": "eric",
  "1912": " reaction",
  "1913": " formation",
  "1914": "imens",
  "1915": " metast",
  "1916": "uff",
  "1917": " vs",
  "1918": " continu",
  "1919": " record",
  "1920": "rome",
  "1921": " imaging",
  "1922": "opath",
  "1923": "hesis",
  "1924": " parameters",
  "1925": "ocument",
  "1926": " ill",
  "1927": " shows",
  "1928": " species",
  "1929": " foc",
  "1930": " phen",
  "1931": "ably",
  "1932": " procedure",
  "1933": " promot",
  "1934": "itation",
  "1935": "ven",
  "1936": "rogen",
  "1937": " psych",
  "1938": " heart",
  "1939": " benef",
  "1940": "vers",
  "1941": " renal",
  "1942": " 22",
  "1943": "ule",
  "1944": " obes",
  "1945": " enzym",
  "1946": " include",
  "1947": " diet",
  "1948": "erence",
  "1949": " calc",
  "1950": " visual",
  "1951": "ressive",
  "1952": " rest",
  "1953": " ner",
  "1954": " synd",
  "1955": " success",
  "1956": " concentrations",
  "1957": " plasma",
  "1958": "lection",
  "1959": " resistance",
  "1960": " mr",
  "1961": "plied",
  "1962": " comparison",
  "1963": " membrane",
  "1964": "1.",
  "1965": " mid",
  "1966": " commun",
  "1967": " made",
  "1968": "yn",
  "1969": " active",
  "1970": " tests",
  "1971": "asis",
  "1972": " 21",
  "1973": " consider",
  "1974": "helial",
  "1975": " statistical",
  "1976": " analyses",
  "1977": "gn",
  "1978": " few",
  "1979": " block",
  "1980": "esis",
  "1981": "ss",
  "1982": " short",
  "1983": "iation",
  "1984": " increasing",
  "1985": " step",
  "1986": "sp",
  "1987": " hypert",
  "1988": " against",
  "1989": " material",
  "1990": " better",
  "1991": "ried",
  "1992": " often",
  "1993": " characteristics",
  "1994": " dm",
  "1995": " lung",
  "1996": "ner",
  "1997": " vac",
  "1998": " his",
  "1999": " additional",
  "2000": " ec",
  "2001": "ostic",
  "2002": " transcri",
  "2003": " example",
  "2004": " exerc",
  "2005": " diffic",
  "2006": "ulations",
  "2007": " mir",
  "2008": " length",
  "2009": " 23",
  "2010": " lack",
  "2011": " achie",
  "2012": "roid",
  "2013": " provide",
  "2014": "amp",
  "2015": " environ",
  "2016": " scale",
  "2017": "otherapy",
  "2018": "ems",
  "2019": " times",
  "2020": " energy",
  "2021": "year",
  "2022": " educ",
  "2023": " difficult",
  "2024": " decrease",
  "2025": " subsequ",
  "2026": "ays",
  "2027": "23",
  "2028": " dependent",
  "2029": " asp",
  "2030": " scores",
  "2031": "ii",
  "2032": " exposure",
  "2033": " analyzed",
  "2034": "agement",
  "2035": "oring",
  "2036": " interact",
  "2037": " compound",
  "2038": "ured",
  "2039": " estab",
  "2040": " ult",
  "2041": " rele",
  "2042": " back",
  "2043": " auth",
  "2044": "bers",
  "2045": "atures",
  "2046": "ling",
  "2047": "eding",
  "2048": " areas",
  "2049": " categ",
  "2050": " ax",
  "2051": " underst",
  "2052": "az",
  "2053": " instit",
  "2054": "mission",
  "2055": " orig",
  "2056": "lex",
  "2057": " univers",
  "2058": "itud",
  "2059": " elev",
  "2060": " temperature",
  "2061": "ints",
  "2062": "pos",
  "2063": " soc",
  "2064": " approxim",
  "2065": " enc",
  "2066": " male",
  "2067": " tumors",
  "2068": " distribution",
  "2069": "urs",
  "2070": " thir",
  "2071": "ason",
  "2072": "own",
  "2073": "ored",
  "2074": "uction",
  "2075": "ld",
  "2076": " separ",
  "2077": " detected",
  "2078": " good",
  "2079": " received",
  "2080": " corresp",
  "2081": "tr",
  "2082": " red",
  "2083": "ographic",
  "2084": " five",
  "2085": "atin",
  "2086": "ries",
  "2087": " plac",
  "2088": " dam",
  "2089": "iat",
  "2090": "ler",
  "2091": " statistically",
  "2092": " breast",
  "2093": "rit",
  "2094": "read",
  "2095": " sequence",
  "2096": " evaluated",
  "2097": " applic",
  "2098": " applied",
  "2099": " via",
  "2100": "uch",
  "2101": "oy",
  "2102": " net",
  "2103": " *",
  "2104": " extract",
  "2105": "ances",
  "2106": " suggested",
  "2107": " 28",
  "2108": " kin",
  "2109": " link",
  "2110": " strain",
  "2111": " pept",
  "2112": "24",
  "2113": "normal",
  "2114": " syndrome",
  "2115": " pd",
  "2116": " images",
  "2117": "emia",
  "2118": " drugs",
  "2119": " start",
  "2120": " wor",
  "2121": "more",
  "2122": " lig",
  "2123": " skin",
  "2124": "medi",
  "2125": " independent",
  "2126": " molecular",
  "2127": " pregn",
  "2128": " chrom",
  "2129": " see",
  "2130": "ae",
  "2131": " outcome",
  "2132": " liter",
  "2133": " systems",
  "2134": " determine",
  "2135": " production",
  "2136": " magn",
  "2137": " 37",
  "2138": " expressed",
  "2139": " program",
  "2140": " light",
  "2141": " failure",
  "2142": " remo",
  "2143": "stant",
  "2144": " versus",
  "2145": " observ",
  "2146": " exc",
  "2147": "ands",
  "2148": " gast",
  "2149": " environment",
  "2150": "dom",
  "2151": " regul",
  "2152": " complications",
  "2153": " thick",
  "2154": " furthermore",
  "2155": "me",
  "2156": " cross",
  "2157": "aps",
  "2158": " indicated",
  "2159": " 26",
  "2160": " evaluation",
  "2161": " selected",
  "2162": "och",
  "2163": "let",
  "2164": " types",
  "2165": " flow",
  "2166": "cluded",
  "2167": " pcr",
  "2168": " sites",
  "2169": "odies",
  "2170": "urrence",
  "2171": " sour",
  "2172": " abnormal",
  "2173": "cal",
  "2174": " assessment",
  "2175": " sensitivity",
  "2176": " dl",
  "2177": " ig",
  "2178": " nan",
  "2179": " management",
  "2180": " instr",
  "2181": " head",
  "2182": " central",
  "2183": " %",
  "2184": "ledge",
  "2185": "yroid",
  "2186": " gly",
  "2187": "fs",
  "2188": " recomm",
  "2189": " hours",
  "2190": " still",
  "2191": "uk",
  "2192": "ense",
  "2193": "01",
  "2194": "ters",
  "2195": " experimental",
  "2196": "ople",
  "2197": " cop",
  "2198": " mit",
  "2199": " impact",
  "2200": " duration",
  "2201": " outcomes",
  "2202": " cogn",
  "2203": "yst",
  "2204": " synt",
  "2205": "ologic",
  "2206": " moder",
  "2207": " 35",
  "2208": " poor",
  "2209": "bl",
  "2210": " unt",
  "2211": " though",
  "2212": "inary",
  "2213": " does",
  "2214": "ocol",
  "2215": " paren",
  "2216": " injury",
  "2217": "40",
  "2218": "gment",
  "2219": " collected",
  "2220": " field",
  "2221": " recently",
  "2222": "oint",
  "2223": " accur",
  "2224": " intervention",
  "2225": "nf",
  "2226": " view",
  "2227": " ps",
  "2228": " provided",
  "2229": " sum",
  "2230": "iciency",
  "2231": " genetic",
  "2232": " limited",
  "2233": " identify",
  "2234": "tt",
  "2235": " coun",
  "2236": " hom",
  "2237": " hz",
  "2238": " knowledge",
  "2239": " female",
  "2240": "pri",
  "2241": " controls",
  "2242": " regions",
  "2243": " people",
  "2244": "por",
  "2245": "inant",
  "2246": " necess",
  "2247": " cycl",
  "2248": " healthy",
  "2249": " espec",
  "2250": "olution",
  "2251": "icular",
  "2252": " prec",
  "2253": " depression",
  "2254": " surve",
  "2255": "inc",
  "2256": " saf",
  "2257": " top",
  "2258": "lation",
  "2259": " wide",
  "2260": " smok",
  "2261": " events",
  "2262": "ending",
  "2263": "opt",
  "2264": " integ",
  "2265": " access",
  "2266": " resulting",
  "2267": " especially",
  "2268": " moreover",
  "2269": " bil",
  "2270": " pow",
  "2271": " rap",
  "2272": "ask",
  "2273": "ave",
  "2274": " ever",
  "2275": " six",
  "2276": " social",
  "2277": " last",
  "2278": "27",
  "2279": " signaling",
  "2280": " carcin",
  "2281": "amic",
  "2282": " virus",
  "2283": " go",
  "2284": " hr",
  "2285": "urn",
  "2286": " 80",
  "2287": " mar",
  "2288": " literature",
  "2289": " 27",
  "2290": "cellular",
  "2291": " exercise",
  "2292": " larg",
  "2293": " assessed",
  "2294": " vascular",
  "2295": " oxid",
  "2296": "orders",
  "2297": "mic",
  "2298": " confirmed",
  "2299": " suff",
  "2300": " iv",
  "2301": "ids",
  "2302": " monit",
  "2303": "enced",
  "2304": " immune",
  "2305": " mechanism",
  "2306": "bo",
  "2307": " read",
  "2308": " artery",
  "2309": "uss",
  "2310": " protocol",
  "2311": "co",
  "2312": " reports",
  "2313": " bmi",
  "2314": "clusion",
  "2315": "ales",
  "2316": " interaction",
  "2317": " caused",
  "2318": " incub",
  "2319": " consistent",
  "2320": " supplement",
  "2321": " lesion",
  "2322": "ring",
  "2323": " secondary",
  "2324": " strateg",
  "2325": " ability",
  "2326": " taken",
  "2327": " os",
  "2328": "rape",
  "2329": "onding",
  "2330": " dos",
  "2331": " down",
  "2332": " supp",
  "2333": " absence",
  "2334": "ank",
  "2335": "otype",
  "2336": " approximately",
  "2337": " animals",
  "2338": " angi",
  "2339": " daily",
  "2340": " cod",
  "2341": "26",
  "2342": " hypot",
  "2343": "ovascular",
  "2344": " stimul",
  "2345": " laboratory",
  "2346": " focus",
  "2347": " guid",
  "2348": " 29",
  "2349": " pharm",
  "2350": " detect",
  "2351": " training",
  "2352": " tox",
  "2353": " combination",
  "2354": " sn",
  "2355": " coh",
  "2356": "ret",
  "2357": "21",
  "2358": " improve",
  "2359": " lay",
  "2360": " inflammation",
  "2361": " section",
  "2362": " along",
  "2363": " epit",
  "2364": "28",
  "2365": " postoperative",
  "2366": "rapeut",
  "2367": "cules",
  "2368": " mechanisms",
  "2369": "urse",
  "2370": " sat",
  "2371": " showing",
  "2372": " malign",
  "2373": " diss",
  "2374": " rna",
  "2375": " understand",
  "2376": " anterior",
  "2377": " rare",
  "2378": " sd",
  "2379": "pr",
  "2380": " having",
  "2381": " serv",
  "2382": " disorders",
  "2383": " limit",
  "2384": " improved",
  "2385": " cut",
  "2386": "ert",
  "2387": "omp",
  "2388": " proport",
  "2389": " public",
  "2390": "utions",
  "2391": " administration",
  "2392": " highly",
  "2393": " cytok",
  "2394": " image",
  "2395": "ame",
  "2396": " peak",
  "2397": "abil",
  "2398": "33",
  "2399": " responses",
  "2400": " rats",
  "2401": " interval",
  "2402": " colon",
  "2403": "get",
  "2404": " university",
  "2405": " density",
  "2406": "ru",
  "2407": " maxim",
  "2408": " prost",
  "2409": " log",
  "2410": "dl",
  "2411": " coll",
  "2412": " food",
  "2413": "pa",
  "2414": " features",
  "2415": " diagnosed",
  "2416": " dev",
  "2417": " recogn",
  "2418": " regression",
  "2419": " cyst",
  "2420": " technique",
  "2421": " help",
  "2422": "ina",
  "2423": "xt",
  "2424": " median",
  "2425": " dem",
  "2426": "ogenic",
  "2427": "oscop",
  "2428": "go",
  "2429": "izing",
  "2430": "ogenesis",
  "2431": " perip",
  "2432": " third",
  "2433": " cohort",
  "2434": " appropri",
  "2435": " metabol",
  "2436": " measurements",
  "2437": "uture",
  "2438": " cognitive",
  "2439": " performance",
  "2440": "igen",
  "2441": " cardiac",
  "2442": "als",
  "2443": " bar",
  "2444": "ising",
  "2445": " port",
  "2446": " bo",
  "2447": "pite",
  "2448": " tissues",
  "2449": "ators",
  "2450": " valid",
  "2451": " minutes",
  "2452": " 36",
  "2453": " fix",
  "2454": " hiv",
  "2455": " young",
  "2456": " oxy",
  "2457": "29",
  "2458": " 90",
  "2459": " wall",
  "2460": " diagnostic",
  "2461": " despite",
  "2462": " cere",
  "2463": "man",
  "2464": " upper",
  "2465": " antibody",
  "2466": " stro",
  "2467": " stren",
  "2468": " molecules",
  "2469": "lying",
  "2470": " air",
  "2471": " mri",
  "2472": "istic",
  "2473": "ec",
  "2474": " structures",
  "2475": " rapid",
  "2476": " transfer",
  "2477": " 48",
  "2478": " repe",
  "2479": " dil",
  "2480": " fract",
  "2481": " circ",
  "2482": " detail",
  "2483": "69",
  "2484": "ta",
  "2485": " streng",
  "2486": "ties",
  "2487": " crit",
  "2488": "iological",
  "2489": "ects",
  "2490": " countries",
  "2491": "icted",
  "2492": "struct",
  "2493": " improvement",
  "2494": " much",
  "2495": " consum",
  "2496": " usually",
  "2497": " trials",
  "2498": " displ",
  "2499": " regarding",
  "2500": " authors",
  "2501": " estimated",
  "2502": " open",
  "2503": " done",
  "2504": "monary",
  "2505": " agg",
  "2506": "ney",
  "2507": " center",
  "2508": "rapeutic",
  "2509": " detection",
  "2510": " rang",
  "2511": "rial",
  "2512": " electro",
  "2513": "orbid",
  "2514": " biop",
  "2515": " hal",
  "2516": "order",
  "2517": " here",
  "2518": " carb",
  "2519": " added",
  "2520": " way",
  "2521": " categor",
  "2522": "dr",
  "2523": " intensity",
  "2524": "mia",
  "2525": " testing",
  "2526": "lor",
  "2527": " points",
  "2528": " amount",
  "2529": "36",
  "2530": " across",
  "2531": " 45",
  "2532": " procedures",
  "2533": " later",
  "2534": " 70",
  "2535": " tested",
  "2536": " invas",
  "2537": " play",
  "2538": " effic",
  "2539": " studied",
  "2540": " squ",
  "2541": " epid",
  "2542": "ci",
  "2543": " plate",
  "2544": " damage",
  "2545": " endot",
  "2546": " hydro",
  "2547": " affected",
  "2548": " derived",
  "2549": "astic",
  "2550": "oun",
  "2551": " prolif",
  "2552": " culture",
  "2553": "80",
  "2554": " select",
  "2555": " muc",
  "2556": " rad",
  "2557": "ture",
  "2558": " oste",
  "2559": " peripher",
  "2560": " exist",
  "2561": " every",
  "2562": " cellular",
  "2563": "uble",
  "2564": " fast",
  "2565": " examined",
  "2566": " grade",
  "2567": " able",
  "2568": " mel",
  "2569": " conn",
  "2570": " hb",
  "2571": "omas",
  "2572": "rh",
  "2573": " ce",
  "2574": "rosis",
  "2575": "work",
  "2576": " relatively",
  "2577": "35",
  "2578": " assay",
  "2579": " release",
  "2580": " injection",
  "2581": " dent",
  "2582": "iratory",
  "2583": " err",
  "2584": " increases",
  "2585": "ploy",
  "2586": " spe",
  "2587": "ochem",
  "2588": " hypertension",
  "2589": " extra",
  "2590": " iii",
  "2591": " stroke",
  "2592": " nerve",
  "2593": " metabolic",
  "2594": "ones",
  "2595": " phot",
  "2596": " abdom",
  "2597": " mouse",
  "2598": " 2010",
  "2599": " posterior",
  "2600": " consequ",
  "2601": " appropriate",
  "2602": " inhibition",
  "2603": " rather",
  "2604": " mes",
  "2605": " sle",
  "2606": " concer",
  "2607": " minim",
  "2608": " action",
  "2609": " ble",
  "2610": " states",
  "2611": "resh",
  "2612": " onset",
  "2613": " influence",
  "2614": " activities",
  "2615": " mediated",
  "2616": "otyp",
  "2617": " terms",
  "2618": "oplas",
  "2619": "hers",
  "2620": " mak",
  "2621": " questionna",
  "2622": " experiments",
  "2623": " carried",
  "2624": "ino",
  "2625": " software",
  "2626": " compos",
  "2627": " cs",
  "2628": "ives",
  "2629": " bra",
  "2630": " means",
  "2631": " measures",
  "2632": " ge",
  "2633": " properties",
  "2634": " medium",
  "2635": " best",
  "2636": " pp",
  "2637": " hip",
  "2638": " prep",
  "2639": " reduce",
  "2640": "line",
  "2641": "34",
  "2642": " domain",
  "2643": " respond",
  "2644": " education",
  "2645": "inf",
  "2646": " maximum",
  "2647": " world",
  "2648": " heter",
  "2649": "aly",
  "2650": " national",
  "2651": " until",
  "2652": "apt",
  "2653": " efficacy",
  "2654": "rot",
  "2655": " screening",
  "2656": " nat",
  "2657": " mutations",
  "2658": " soci",
  "2659": " corresponding",
  "2660": "ings",
  "2661": " altern",
  "2662": "ool",
  "2663": " load",
  "2664": " exhib",
  "2665": " leading",
  "2666": " ess",
  "2667": " susp",
  "2668": " receptors",
  "2669": " ta",
  "2670": " must",
  "2671": " obesity",
  "2672": " clus",
  "2673": " expected",
  "2674": " bp",
  "2675": " buff",
  "2676": " kid",
  "2677": " antibodies",
  "2678": "arc",
  "2679": "any",
  "2680": "gl",
  "2681": " figures",
  "2682": " physici",
  "2683": " acet",
  "2684": " fit",
  "2685": " eye",
  "2686": "cence",
  "2687": "put",
  "2688": " noted",
  "2689": " recorded",
  "2690": " moderate",
  "2691": " indicate",
  "2692": "fact",
  "2693": " abdominal",
  "2694": " datab",
  "2695": " sil",
  "2696": " contact",
  "2697": " tool",
  "2698": " therapeutic",
  "2699": " close",
  "2700": " relev",
  "2701": "amine",
  "2702": " directly",
  "2703": " isolated",
  "2704": "terol",
  "2705": "rolog",
  "2706": " germ",
  "2707": " upon",
  "2708": " percentage",
  "2709": "aged",
  "2710": " power",
  "2711": "70",
  "2712": " home",
  "2713": " elevated",
  "2714": " ster",
  "2715": " combined",
  "2716": " require",
  "2717": " linear",
  "2718": " tend",
  "2719": " ben",
  "2720": "ogene",
  "2721": " successful",
  "2722": " infections",
  "2723": " throm",
  "2724": " needed",
  "2725": "itative",
  "2726": " viv",
  "2727": " progression",
  "2728": " toward",
  "2729": " discuss",
  "2730": "illary",
  "2731": " future",
  "2732": " microscop",
  "2733": " suggesting",
  "2734": " placed",
  "2735": "75",
  "2736": " fra",
  "2737": "overy",
  "2738": " lat",
  "2739": " ventr",
  "2740": " practice",
  "2741": " ampl",
  "2742": " 2009",
  "2743": " iss",
  "2744": " strength",
  "2745": " older",
  "2746": " necessary",
  "2747": " pulmonary",
  "2748": " sequences",
  "2749": " mmol",
  "2750": " white",
  "2751": " coron",
  "2752": " vacc",
  "2753": "da",
  "2754": " course",
  "2755": " components",
  "2756": " particularly",
  "2757": " agents",
  "2758": " continuous",
  "2759": "math",
  "2760": " larger",
  "2761": " series",
  "2762": " assum",
  "2763": " adip",
  "2764": "ules",
  "2765": " chall",
  "2766": " acqu",
  "2767": "60",
  "2768": " max",
  "2769": "function",
  "2770": " lipid",
  "2771": " apopt",
  "2772": "ptic",
  "2773": " ultr",
  "2774": " 34",
  "2775": "rodu",
  "2776": "bral",
  "2777": " established",
  "2778": " implant",
  "2779": " near",
  "2780": "cut",
  "2781": " bro",
  "2782": " bir",
  "2783": " vess",
  "2784": "document",
  "2785": " refer",
  "2786": " panc",
  "2787": " adults",
  "2788": " setting",
  "2789": " network",
  "2790": " proposed",
  "2791": " causes",
  "2792": " hepat",
  "2793": "tle",
  "2794": " chemical",
  "2795": " trig",
  "2796": " diamet",
  "2797": "usted",
  "2798": "bi",
  "2799": " except",
  "2800": " peripheral",
  "2801": "anes",
  "2802": " evaluate",
  "2803": " underw",
  "2804": " around",
  "2805": " hc",
  "2806": " ele",
  "2807": "hetic",
  "2808": "45",
  "2809": " root",
  "2810": " 31",
  "2811": " functions",
  "2812": " adverse",
  "2813": " cardiovascular",
  "2814": " morph",
  "2815": "artment",
  "2816": " published",
  "2817": " underwent",
  "2818": " eas",
  "2819": " characterized",
  "2820": " experience",
  "2821": " facil",
  "2822": "que",
  "2823": " summ",
  "2824": " finally",
  "2825": " correct",
  "2826": " interactions",
  "2827": " od",
  "2828": "38",
  "2829": " whole",
  "2830": "ires",
  "2831": " aim",
  "2832": " bur",
  "2833": " highest",
  "2834": " essential",
  "2835": " situ",
  "2836": "aff",
  "2837": " progn",
  "2838": " oxygen",
  "2839": " females",
  "2840": "oly",
  "2841": " systemic",
  "2842": " dim",
  "2843": " aff",
  "2844": " suggests",
  "2845": "ulf",
  "2846": " fluores",
  "2847": " neut",
  "2848": " alone",
  "2849": "struction",
  "2850": " interesting",
  "2851": " don",
  "2852": " depend",
  "2853": "aw",
  "2854": " alc",
  "2855": " introdu",
  "2856": " key",
  "2857": " mig",
  "2858": " object",
  "2859": " space",
  "2860": " employ",
  "2861": " pc",
  "2862": " mild",
  "2863": "estinal",
  "2864": " coronary",
  "2865": "ula",
  "2866": "ier",
  "2867": "rie",
  "2868": " products",
  "2869": " 2008",
  "2870": " version",
  "2871": " lateral",
  "2872": " degree",
  "2873": " 33",
  "2874": " neurons",
  "2875": " investigated",
  "2876": " eng",
  "2877": " excluded",
  "2878": " problems",
  "2879": " basis",
  "2880": "yr",
  "2881": " critical",
  "2882": " dental",
  "2883": " variable",
  "2884": "chem",
  "2885": " students",
  "2886": " sci",
  "2887": " choles",
  "2888": " fraction",
  "2889": " che",
  "2890": " vivo",
  "2891": " thyroid",
  "2892": " what",
  "2893": " pregnancy",
  "2894": "alk",
  "2895": " sod",
  "2896": " cho",
  "2897": " full",
  "2898": " reference",
  "2899": "bp",
  "2900": " intake",
  "2901": " pt",
  "2902": " na",
  "2903": " below",
  "2904": "uring",
  "2905": " real",
  "2906": " 32",
  "2907": " eu",
  "2908": " thickness",
  "2909": " mc",
  "2910": " transplant",
  "2911": " anest",
  "2912": " source",
  "2913": "2.",
  "2914": "enc",
  "2915": "outh",
  "2916": " subsequent",
  "2917": "iatric",
  "2918": " traum",
  "2919": " integr",
  "2920": " internal",
  "2921": "37",
  "2922": " task",
  "2923": " reason",
  "2924": " dyn",
  "2925": "ivari",
  "2926": " glob",
  "2927": "ysis",
  "2928": " mental",
  "2929": " accept",
  "2930": " call",
  "2931": " cholesterol",
  "2932": "aring",
  "2933": " avoid",
  "2934": " pan",
  "2935": " pass",
  "2936": " application",
  "2937": " respiratory",
  "2938": " ng",
  "2939": " males",
  "2940": " dysfunction",
  "2941": " controlled",
  "2942": " motor",
  "2943": " vitro",
  "2944": " majority",
  "2945": " useful",
  "2946": " pharmac",
  "2947": "sc",
  "2948": " 38",
  "2949": "less",
  "2950": " immedi",
  "2951": " techniques",
  "2952": "100",
  "2953": " alle",
  "2954": " 75",
  "2955": "umb",
  "2956": " event",
  "2957": "mitted",
  "2958": " nit",
  "2959": "ites",
  "2960": " 2011",
  "2961": " dig",
  "2962": " stimulation",
  "2963": "orption",
  "2964": " substr",
  "2965": " nut",
  "2966": "equ",
  "2967": " bond",
  "2968": " devi",
  "2969": "raw",
  "2970": " carcinoma",
  "2971": " occurred",
  "2972": " compounds",
  "2973": " enzyme",
  "2974": "itude",
  "2975": " reflect",
  "2976": " 2007",
  "2977": " americ",
  "2978": "use",
  "2979": " teeth",
  "2980": "nas",
  "2981": " defin",
  "2982": " smoking",
  "2983": "ping",
  "2984": " base",
  "2985": " diameter",
  "2986": "39",
  "2987": " toget",
  "2988": " together",
  "2989": " content",
  "2990": " aden",
  "2991": "ocyte",
  "2992": " significance",
  "2993": "rm",
  "2994": "ayed",
  "2995": " account",
  "2996": " severity",
  "2997": " aged",
  "2998": " room",
  "2999": " measurement",
  "3000": " alcoh",
  "3001": " behavior",
  "3002": "istry",
  "3003": " pathways",
  "3004": "oration",
  "3005": " problem",
  "3006": " secre",
  "3007": " reli",
  "3008": " mill",
  "3009": " artic",
  "3010": "atal",
  "3011": " adjusted",
  "3012": " convent",
  "3013": " recurrence",
  "3014": " chann",
  "3015": "53",
  "3016": "roup",
  "3017": "omer",
  "3018": " bal",
  "3019": " cycle",
  "3020": " divid",
  "3021": " biological",
  "3022": "tical",
  "3023": " decl",
  "3024": " infected",
  "3025": " confirm",
  "3026": " ped",
  "3027": " ov",
  "3028": " adapt",
  "3029": " enhanced",
  "3030": "weight",
  "3031": " certain",
  "3032": "44",
  "3033": "agen",
  "3034": " populations",
  "3035": " alter",
  "3036": " antibi",
  "3037": " kidney",
  "3038": " sleep",
  "3039": "anol",
  "3040": " util",
  "3041": " nurs",
  "3042": "rad",
  "3043": " located",
  "3044": " adhes",
  "3045": " inser",
  "3046": " regulation",
  "3047": " interf",
  "3048": " special",
  "3049": "uration",
  "3050": " half",
  "3051": " enhance",
  "3052": "rix",
  "3053": "0.0",
  "3054": " hemat",
  "3055": " biom",
  "3056": " generally",
  "3057": "90",
  "3058": " diabetic",
  "3059": " inst",
  "3060": " impair",
  "3061": "ped",
  "3062": " host",
  "3063": "arch",
  "3064": " vas",
  "3065": " biopsy",
  "3066": " force",
  "3067": "ectomy",
  "3068": " pal",
  "3069": "erv",
  "3070": "ocard",
  "3071": " processes",
  "3072": "hing",
  "3073": " questionnaire",
  "3074": " interp",
  "3075": "onomic",
  "3076": "oster",
  "3077": " extre",
  "3078": " accum",
  "3079": " indicating",
  "3080": " consent",
  "3081": "be",
  "3082": "encing",
  "3083": " now",
  "3084": " involvement",
  "3085": " commonly",
  "3086": " peptide",
  "3087": " den",
  "3088": " cas",
  "3089": " express",
  "3090": "omal",
  "3091": " longer",
  "3092": " fluid",
  "3093": " once",
  "3094": " hen",
  "3095": "ophil",
  "3096": " tnf",
  "3097": "met",
  "3098": " scan",
  "3099": " layer",
  "3100": "the",
  "3101": " proportion",
  "3102": " obtain",
  "3103": " prepared",
  "3104": " developing",
  "3105": " resulted",
  "3106": " gender",
  "3107": " proliferation",
  "3108": " mil",
  "3109": "den",
  "3110": " patterns",
  "3111": "mb",
  "3112": " correlated",
  "3113": " cv",
  "3114": " perf",
  "3115": " undergo",
  "3116": " past",
  "3117": " cathe",
  "3118": " ann",
  "3119": " relevant",
  "3120": "ogl",
  "3121": " survey",
  "3122": " disorder",
  "3123": " administered",
  "3124": " occurs",
  "3125": " bleeding",
  "3126": " ip",
  "3127": " mutation",
  "3128": " chemotherapy",
  "3129": " commit",
  "3130": " importance",
  "3131": " slight",
  "3132": "hyd",
  "3133": "eff",
  "3134": " markers",
  "3135": " tl",
  "3136": " rs",
  "3137": "oids",
  "3138": "rog",
  "3139": " bacterial",
  "3140": " transcript",
  "3141": " approved",
  "3142": " rt",
  "3143": " leads",
  "3144": "dle",
  "3145": " gel",
  "3146": " alternative",
  "3147": "arily",
  "3148": "umin",
  "3149": " stable",
  "3150": "group",
  "3151": " polymer",
  "3152": " jap",
  "3153": "tered",
  "3154": " conventional",
  "3155": " horm",
  "3156": "emic",
  "3157": "inct",
  "3158": " placebo",
  "3159": " $",
  "3160": " mol",
  "3161": "onic",
  "3162": " ion",
  "3163": "icle",
  "3164": " produced",
  "3165": " database",
  "3166": " mainly",
  "3167": " remains",
  "3168": " mrna",
  "3169": " mixture",
  "3170": " nmr",
  "3171": " comput",
  "3172": "to",
  "3173": "ached",
  "3174": " staining",
  "3175": "clus",
  "3176": " person",
  "3177": " understanding",
  "3178": "iveness",
  "3179": " project",
  "3180": " birth",
  "3181": " differentiation",
  "3182": " vitamin",
  "3183": " neurolog",
  "3184": " calcium",
  "3185": " pen",
  "3186": " removed",
  "3187": "pective",
  "3188": " pel",
  "3189": " stem",
  "3190": " make",
  "3191": " alcohol",
  "3192": " capac",
  "3193": " weak",
  "3194": " yield",
  "3195": "ivery",
  "3196": " school",
  "3197": " maintain",
  "3198": "ochond",
  "3199": "cers",
  "3200": " community",
  "3201": " repl",
  "3202": " label",
  "3203": " distance",
  "3204": " segment",
  "3205": " 2006",
  "3206": " recru",
  "3207": "ethyl",
  "3208": " buffer",
  "3209": " frequently",
  "3210": " chest",
  "3211": " thromb",
  "3212": " gre",
  "3213": " lap",
  "3214": " delivery",
  "3215": " others",
  "3216": " achieved",
  "3217": " rot",
  "3218": " activated",
  "3219": " 65",
  "3220": " pm",
  "3221": "hood",
  "3222": " toler",
  "3223": " component",
  "3224": "most",
  "3225": "ogenous",
  "3226": " cp",
  "3227": " experiment",
  "3228": " services",
  "3229": " cre",
  "3230": "imen",
  "3231": "aches",
  "3232": " provides",
  "3233": " wild",
  "3234": " pair",
  "3235": "65",
  "3236": " medi",
  "3237": " bound",
  "3238": "neum",
  "3239": " matrix",
  "3240": "iology",
  "3241": " transcription",
  "3242": " origin",
  "3243": " attrib",
  "3244": " selection",
  "3245": " art",
  "3246": " resection",
  "3247": " slow",
  "3248": " belie",
  "3249": " arrow",
  "3250": "rup",
  "3251": " never",
  "3252": " pet",
  "3253": " safety",
  "3254": " amino",
  "3255": "ochemical",
  "3256": "32",
  "3257": "67",
  "3258": "ively",
  "3259": " ven",
  "3260": " unc",
  "3261": " structural",
  "3262": " joint",
  "3263": " lear",
  "3264": " solid",
  "3265": " signs",
  "3266": "ched",
  "3267": " comm",
  "3268": " map",
  "3269": " department",
  "3270": "99",
  "3271": " emb",
  "3272": " sa",
  "3273": " tooth",
  "3274": " genome",
  "3275": "oxid",
  "3276": " rout",
  "3277": "arr",
  "3278": " generated",
  "3279": " agree",
  "3280": " pap",
  "3281": " 2005",
  "3282": "etal",
  "3283": "by",
  "3284": " ure",
  "3285": " location",
  "3286": " fas",
  "3287": " contex",
  "3288": "oz",
  "3289": " mh",
  "3290": "ering",
  "3291": " next",
  "3292": " restr",
  "3293": " intern",
  "3294": "adder",
  "3295": " cerv",
  "3296": " middle",
  "3297": " ischem",
  "3298": "ulate",
  "3299": " incubated",
  "3300": "heren",
  "3301": "rotein",
  "3302": " tom",
  "3303": "illed",
  "3304": "48",
  "3305": " conform",
  "3306": " coup",
  "3307": " 2012",
  "3308": "ibr",
  "3309": " alg",
  "3310": " transform",
  "3311": " ow",
  "3312": " endothelial",
  "3313": " creat",
  "3314": " arg",
  "3315": " ns",
  "3316": "encies",
  "3317": " far",
  "3318": " thor",
  "3319": " macroph",
  "3320": " natural",
  "3321": "hesia",
  "3322": " mt",
  "3323": " lines",
  "3324": "opathy",
  "3325": " tren",
  "3326": " hence",
  "3327": "xi",
  "3328": " strains",
  "3329": " recommended",
  "3330": " indicates",
  "3331": " become",
  "3332": " profile",
  "3333": "izes",
  "3334": " methyl",
  "3335": " md",
  "3336": " 39",
  "3337": "urb",
  "3338": " medicine",
  "3339": " 55",
  "3340": " currently",
  "3341": "ivariate",
  "3342": " shif",
  "3343": " height",
  "3344": " yet",
  "3345": " spinal",
  "3346": " earli",
  "3347": "fa",
  "3348": " pneum",
  "3349": " rh",
  "3350": " recon",
  "3351": " numbers",
  "3352": " modified",
  "3353": " bacteria",
  "3354": " paras",
  "3355": " oct",
  "3356": " clinically",
  "3357": " flex",
  "3358": "io",
  "3359": "eed",
  "3360": " coeff",
  "3361": "rest",
  "3362": "itone",
  "3363": " colle",
  "3364": " wa",
  "3365": " members",
  "3366": " adjust",
  "3367": " mitochond",
  "3368": " routine",
  "3369": " just",
  "3370": " prote",
  "3371": " forms",
  "3372": " induction",
  "3373": "here",
  "3374": " fram",
  "3375": " leg",
  "3376": " medication",
  "3377": " 42",
  "3378": "wise",
  "3379": "49",
  "3380": " satis",
  "3381": "iting",
  "3382": "57",
  "3383": " hs",
  "3384": " 198",
  "3385": " monitoring",
  "3386": "ching",
  "3387": " led",
  "3388": " cav",
  "3389": "iles",
  "3390": " randomized",
  "3391": "ilt",
  "3392": " costs",
  "3393": " contribute",
  "3394": " iron",
  "3395": "sis",
  "3396": " cervical",
  "3397": " therm",
  "3398": " ul",
  "3399": "erior",
  "3400": " nec",
  "3401": " suscept",
  "3402": " prepar",
  "3403": " graft",
  "3404": "icial",
  "3405": "osome",
  "3406": " recovery",
  "3407": " eyes",
  "3408": " classification",
  "3409": " doses",
  "3410": " famil",
  "3411": "empt",
  "3412": " profess",
  "3413": "elines",
  "3414": "bb",
  "3415": " lit",
  "3416": "ophag",
  "3417": " oc",
  "3418": " committe",
  "3419": "ivation",
  "3420": " possibility",
  "3421": " 46",
  "3422": " phosphory",
  "3423": " euro",
  "3424": " lapa",
  "3425": " almost",
  "3426": "bor",
  "3427": "31",
  "3428": " sem",
  "3429": "ots",
  "3430": "fold",
  "3431": "ls",
  "3432": " computed",
  "3433": "oglob",
  "3434": ")-",
  "3435": " capacity",
  "3436": "la",
  "3437": "ges",
  "3438": " repeated",
  "3439": " mand",
  "3440": "elling",
  "3441": " exposed",
  "3442": " mixed",
  "3443": " fr",
  "3444": " auto",
  "3445": " aort",
  "3446": "orrh",
  "3447": "47",
  "3448": " conj",
  "3449": " partial",
  "3450": " orth",
  "3451": " divided",
  "3452": " malignant",
  "3453": " identification",
  "3454": " fixed",
  "3455": "sh",
  "3456": " classified",
  "3457": " double",
  "3458": " extensive",
  "3459": " pg",
  "3460": " bio",
  "3461": " hepatic",
  "3462": "ocyt",
  "3463": " specimens",
  "3464": "ctor",
  "3465": " cytokines",
  "3466": " date",
  "3467": "rition",
  "3468": " apoptosis",
  "3469": "}{",
  "3470": " melan",
  "3471": " document",
  "3472": " myocard",
  "3473": " scient",
  "3474": " fav",
  "3475": " cryst",
  "3476": " advant",
  "3477": " advanced",
  "3478": "ifically",
  "3479": " underlying",
  "3480": " inhibitors",
  "3481": "ets",
  "3482": " specificity",
  "3483": "46",
  "3484": "ened",
  "3485": " radiation",
  "3486": " guidelines",
  "3487": " memory",
  "3488": " facilit",
  "3489": " treatments",
  "3490": " sodium",
  "3491": " manif",
  "3492": "poral",
  "3493": " transf",
  "3494": "unct",
  "3495": " nature",
  "3496": " marg",
  "3497": "yg",
  "3498": " novel",
  "3499": " antigen",
  "3500": " gran",
  "3501": " leuk",
  "3502": " collection",
  "3503": " unit",
  "3504": "hg",
  "3505": " anat",
  "3506": " ech",
  "3507": " follows",
  "3508": " dimens",
  "3509": " persist",
  "3510": " epithelial",
  "3511": " ib",
  "3512": " implement",
  "3513": " distinct",
  "3514": "ique",
  "3515": " angle",
  "3516": " mention",
  "3517": " induce",
  "3518": " pol",
  "3519": " constant",
  "3520": " germany",
  "3521": "che",
  "3522": " stages",
  "3523": " simple",
  "3524": " thresh",
  "3525": " linked",
  "3526": " ide",
  "3527": " spl",
  "3528": " original",
  "3529": " intr",
  "3530": " turn",
  "3531": " neck",
  "3532": " repair",
  "3533": " inhibitor",
  "3534": "ication",
  "3535": "icles",
  "3536": " compare",
  "3537": " transition",
  "3538": " institution",
  "3539": " europe",
  "3540": " substant",
  "3541": "osa",
  "3542": " ifn",
  "3543": " responsible",
  "3544": " fin",
  "3545": " extent",
  "3546": "aries",
  "3547": " illness",
  "3548": "land",
  "3549": " 72",
  "3550": " iran",
  "3551": " imm",
  "3552": "ik",
  "3553": " concept",
  "3554": " catheter",
  "3555": "ray",
  "3556": " har",
  "3557": " attempt",
  "3558": "ternal",
  "3559": " pla",
  "3560": " consumption",
  "3561": " resolution",
  "3562": " corne",
  "3563": " kinase",
  "3564": " resistant",
  "3565": "ode",
  "3566": " fibro",
  "3567": " ens",
  "3568": " fund",
  "3569": " synthesis",
  "3570": "rine",
  "3571": " informed",
  "3572": " polymorph",
  "3573": " similarly",
  "3574": " context",
  "3575": " list",
  "3576": " mis",
  "3577": " superior",
  "3578": " specifically",
  "3579": " observation",
  "3580": " tube",
  "3581": " pancreat",
  "3582": " committee",
  "3583": " cluster",
  "3584": " metabolism",
  "3585": " marked",
  "3586": "roscopic",
  "3587": " replic",
  "3588": " researc",
  "3589": " tract",
  "3590": " bilateral",
  "3591": " 2004",
  "3592": " implic",
  "3593": "rin",
  "3594": " optim",
  "3595": " tb",
  "3596": " distal",
  "3597": " prosp",
  "3598": " additionally",
  "3599": " invasive",
  "3600": " late",
  "3601": " adequ",
  "3602": " predicted",
  "3603": " nas",
  "3604": "idine",
  "3605": " regular",
  "3606": " pack",
  "3607": " variation",
  "3608": " repro",
  "3609": " kit",
  "3610": "ologies",
  "3611": " appears",
  "3612": " removal",
  "3613": " clinic",
  "3614": "inine",
  "3615": "omat",
  "3616": " benefit",
  "3617": " preoperative",
  "3618": " gastro",
  "3619": " earlier",
  "3620": " coord",
  "3621": " core",
  "3622": " anxi",
  "3623": " entire",
  "3624": " accuracy",
  "3625": "anning",
  "3626": " nuclear",
  "3627": " trauma",
  "3628": " note",
  "3629": " lys",
  "3630": "enz",
  "3631": " involving",
  "3632": " 500",
  "3633": " sensitive",
  "3634": " disch",
  "3635": " prevention",
  "3636": "take",
  "3637": " curve",
  "3638": " arterial",
  "3639": " viral",
  "3640": " subsequently",
  "3641": " hp",
  "3642": " deviation",
  "3643": "know",
  "3644": "68",
  "3645": " remaining",
  "3646": " run",
  "3647": " making",
  "3648": "rum",
  "3649": "ils",
  "3650": " subgroup",
  "3651": " manifest",
  "3652": " indeed",
  "3653": " experienced",
  "3654": " attention",
  "3655": "ema",
  "3656": "duction",
  "3657": " excess",
  "3658": " strategies",
  "3659": " minimal",
  "3660": "inations",
  "3661": " recommend",
  "3662": "olved",
  "3663": " seems",
  "3664": " produce",
  "3665": " circum",
  "3666": " assign",
  "3667": " designed",
  "3668": " materials",
  "3669": " mamm",
  "3670": "orbidity",
  "3671": "onia",
  "3672": " hypothesis",
  "3673": " elder",
  "3674": " confidence",
  "3675": " arr",
  "3676": " cortex",
  "3677": " respect",
  "3678": "rim",
  "3679": "55",
  "3680": "cule",
  "3681": " admission",
  "3682": " color",
  "3683": "aces",
  "3684": " broad",
  "3685": " receiving",
  "3686": " device",
  "3687": "was",
  "3688": " global",
  "3689": "obl",
  "3690": " items",
  "3691": " las",
  "3692": " find",
  "3693": " urinary",
  "3694": " remained",
  "3695": " questions",
  "3696": " glut",
  "3697": "42",
  "3698": " asym",
  "3699": "orith",
  "3700": " 47",
  "3701": " reactions",
  "3702": " direction",
  "3703": " clearly",
  "3704": " terminal",
  "3705": " quantitative",
  "3706": "lish",
  "3707": " fron",
  "3708": " chlor",
  "3709": " presentation",
  "3710": "eral",
  "3711": " taking",
  "3712": "inate",
  "3713": " prox",
  "3714": " obese",
  "3715": " algorith",
  "3716": " miss",
  "3717": " pi",
  "3718": " ste",
  "3719": " potentially",
  "3720": " interview",
  "3721": " sess",
  "3722": " chain",
  "3723": " acids",
  "3724": "ropath",
  "3725": " external",
  "3726": "ronch",
  "3727": "acement",
  "3728": " cand",
  "3729": " stent",
  "3730": "phal",
  "3731": "3.",
  "3732": " prospective",
  "3733": " enrol",
  "3734": " error",
  "3735": " environmental",
  "3736": "lated",
  "3737": " princ",
  "3738": " movement",
  "3739": " humans",
  "3740": "cd",
  "3741": " living",
  "3742": " 2000",
  "3743": " tomography",
  "3744": " sections",
  "3745": " transport",
  "3746": "aired",
  "3747": " fracture",
  "3748": " numer",
  "3749": " py",
  "3750": ").",
  "3751": "cles",
  "3752": "ope",
  "3753": "ova",
  "3754": " eight",
  "3755": " comparing",
  "3756": " metastasis",
  "3757": " seven",
  "3758": "asons",
  "3759": " predom",
  "3760": "iary",
  "3761": " ask",
  "3762": " operative",
  "3763": " approaches",
  "3764": " emer",
  "3765": " elderly",
  "3766": "venous",
  "3767": " walk",
  "3768": " plus",
  "3769": "lyce",
  "3770": "ises",
  "3771": " prostate",
  "3772": " alb",
  "3773": " black",
  "3774": " nor",
  "3775": "0.05",
  "3776": " anxiety",
  "3777": "pati",
  "3778": " strongly",
  "3779": "ontal",
  "3780": "otics",
  "3781": " check",
  "3782": " mob",
  "3783": " prem",
  "3784": " ful",
  "3785": " inclusion",
  "3786": "osin",
  "3787": " basal",
  "3788": " 2013",
  "3789": "ble",
  "3790": " candid",
  "3791": "lo",
  "3792": " molecule",
  "3793": " glyc",
  "3794": "bial",
  "3795": " cerebral",
  "3796": "bal",
  "3797": " optimal",
  "3798": " incor",
  "3799": " alk",
  "3800": "ott",
  "3801": " extracted",
  "3802": " vessels",
  "3803": " rev",
  "3804": " epis",
  "3805": "pp",
  "3806": " search",
  "3807": " generation",
  "3808": "ime",
  "3809": " si",
  "3810": " ss",
  "3811": " strategy",
  "3812": " probably",
  "3813": "66",
  "3814": " sufficient",
  "3815": " lt",
  "3816": " temporal",
  "3817": " impairment",
  "3818": "crib",
  "3819": " referred",
  "3820": " needs",
  "3821": "asts",
  "3822": " progressive",
  "3823": "otox",
  "3824": " lob",
  "3825": " completely",
  "3826": " descri",
  "3827": "yle",
  "3828": " intravenous",
  "3829": " manu",
  "3830": "otypes",
  "3831": " agreement",
  "3832": " gastric",
  "3833": " compet",
  "3834": " mentioned",
  "3835": " ga",
  "3836": " considering",
  "3837": " ana",
  "3838": " oxidative",
  "3839": " kn",
  "3840": " 44",
  "3841": " reducing",
  "3842": " nf",
  "3843": " tradition",
  "3844": " paper",
  "3845": " manufact",
  "3846": " retros",
  "3847": "fort",
  "3848": " working",
  "3849": " demonstrate",
  "3850": " deficiency",
  "3851": " interestingly",
  "3852": "cg",
  "3853": " ker",
  "3854": " interventions",
  "3855": "ars",
  "3856": " substrate",
  "3857": " sha",
  "3858": " typical",
  "3859": "ream",
  "3860": " american",
  "3861": " antic",
  "3862": " vary",
  "3863": " resour",
  "3864": "thal",
  "3865": "ready",
  "3866": " represents",
  "3867": "xp",
  "3868": " ak",
  "3869": "atives",
  "3870": " kne",
  "3871": " exact",
  "3872": " assist",
  "3873": " domains",
  "3874": " spss",
  "3875": "oxy",
  "3876": " uptake",
  "3877": " already",
  "3878": " ventricular",
  "3879": " adoles",
  "3880": "0.001",
  "3881": " 43",
  "3882": "ocal",
  "3883": " smo",
  "3884": " investigate",
  "3885": " hemorrh",
  "3886": " decision",
  "3887": "ometric",
  "3888": " emerg",
  "3889": " sampling",
  "3890": " medications",
  "3891": "amide",
  "3892": " urine",
  "3893": " little",
  "3894": "ocl",
  "3895": "gments",
  "3896": " signals",
  "3897": " rob",
  "3898": " neph",
  "3899": " 41",
  "3900": "ctal",
  "3901": " dop",
  "3902": "bry",
  "3903": " myocardial",
  "3904": " frequent",
  "3905": " ery",
  "3906": "mp",
  "3907": "itary",
  "3908": " initially",
  "3909": "gency",
  "3910": " depos",
  "3911": " ten",
  "3912": " mmhg",
  "3913": " agent",
  "3914": "pose",
  "3915": " called",
  "3916": "heless",
  "3917": " infar",
  "3918": "ground",
  "3919": " surge",
  "3920": " japan",
  "3921": "uria",
  "3922": " prolong",
  "3923": " variety",
  "3924": " ultras",
  "3925": " investigation",
  "3926": "95",
  "3927": " units",
  "3928": " sig",
  "3929": " ple",
  "3930": "ipl",
  "3931": " kore",
  "3932": " enzymes",
  "3933": "78",
  "3934": " widely",
  "3935": " neural",
  "3936": "like",
  "3937": "ica",
  "3938": " magnetic",
  "3939": " macrophages",
  "3940": " fluor",
  "3941": "urg",
  "3942": " minimum",
  "3943": " reach",
  "3944": " differential",
  "3945": " constit",
  "3946": " compr",
  "3947": "mm",
  "3948": " wound",
  "3949": "agon",
  "3950": " trigg",
  "3951": " fluorescence",
  "3952": " take",
  "3953": " india",
  "3954": " fore",
  "3955": " ds",
  "3956": " intracellular",
  "3957": " hf",
  "3958": " formed",
  "3959": " electron",
  "3960": "aria",
  "3961": " residues",
  "3962": " green",
  "3963": " construct",
  "3964": " ultrasound",
  "3965": " learning",
  "3966": "43",
  "3967": " unique",
  "3968": " plant",
  "3969": " effort",
  "3970": " smaller",
  "3971": " satisf",
  "3972": " international",
  "3973": "etics",
  "3974": " transmission",
  "3975": " physicians",
  "3976": " arm",
  "3977": " sac",
  "3978": " bronch",
  "3979": " lact",
  "3980": "oprotein",
  "3981": "arent",
  "3982": " derm",
  "3983": " allowed",
  "3984": " retrospective",
  "3985": " face",
  "3986": " beg",
  "3987": " align",
  "3988": " none",
  "3989": " cortical",
  "3990": " reasons",
  "3991": " pbs",
  "3992": " hcv",
  "3993": " requires",
  "3994": "light",
  "3995": " occup",
  "3996": " explained",
  "3997": " challeng",
  "3998": " id",
  "3999": " throughout",
  "4000": " immediately",
  "4001": "ished",
  "4002": " colum",
  "4003": " intermedi",
  "4004": " stability",
  "4005": "arged",
  "4006": " meta",
  "4007": " bladder",
  "4008": " accumulation",
  "4009": "itus",
  "4010": "ields",
  "4011": " substit",
  "4012": " reviewed",
  "4013": " professional",
  "4014": " includes",
  "4015": " fasting",
  "4016": "cutaneous",
  "4017": "ergic",
  "4018": "77",
  "4019": " put",
  "4020": " square",
  "4021": " secretion",
  "4022": "rocy",
  "4023": "88",
  "4024": " wt",
  "4025": " verte",
  "4026": " arth",
  "4027": "rophy",
  "4028": " elim",
  "4029": " pref",
  "4030": " ?",
  "4031": "semb",
  "4032": " metal",
  "4033": " metastatic",
  "4034": " composition",
  "4035": " abnormalities",
  "4036": "immun",
  "4037": "cler",
  "4038": " hdl",
  "4039": " marker",
  "4040": " conver",
  "4041": "imes",
  "4042": " limitations",
  "4043": " institute",
  "4044": " impaired",
  "4045": " igg",
  "4046": "oe",
  "4047": "ways",
  "4048": " 300",
  "4049": " embry",
  "4050": "inated",
  "4051": " tumour",
  "4052": " house",
  "4053": " fully",
  "4054": " isolates",
  "4055": " egf",
  "4056": " 2003",
  "4057": " surround",
  "4058": " allows",
  "4059": " occurrence",
  "4060": " barri",
  "4061": "200",
  "4062": " spectrum",
  "4063": " anesthesia",
  "4064": " hor",
  "4065": " blue",
  "4066": " slightly",
  "4067": " afric",
  "4068": " aware",
  "4069": " hard",
  "4070": " dietary",
  "4071": " mechanical",
  "4072": " gp",
  "4073": " heterogene",
  "4074": " 2002",
  "4075": "ats",
  "4076": " supplementary",
  "4077": " pig",
  "4078": " proximal",
  "4079": " prognosis",
  "4080": " processing",
  "4081": " demographic",
  "4082": " threshold",
  "4083": " cancers",
  "4084": "41",
  "4085": "ifications",
  "4086": "day",
  "4087": " speed",
  "4088": " background",
  "4089": " recurrent",
  "4090": " endoscop",
  "4091": " 150",
  "4092": " ray",
  "4093": " degrad",
  "4094": " ldl",
  "4095": " axis",
  "4096": " physiological",
  "4097": " toxicity",
  "4098": "ori",
  "4099": " scientific",
  "4100": "ologically",
  "4101": " parents",
  "4102": " draw",
  "4103": " ane",
  "4104": " bu",
  "4105": "vant",
  "4106": " relation",
  "4107": "73",
  "4108": " operation",
  "4109": "aryn",
  "4110": " bios",
  "4111": " maternal",
  "4112": "eling",
  "4113": " nutrition",
  "4114": " dc",
  "4115": " fall",
  "4116": "urys",
  "4117": " estimate",
  "4118": " completed",
  "4119": "oglobin",
  "4120": "uls",
  "4121": " 49",
  "4122": "arb",
  "4123": " explain",
  "4124": "ustr",
  "4125": " wid",
  "4126": " 58",
  "4127": " wave",
  "4128": " cb",
  "4129": "rief",
  "4130": " 57",
  "4131": " maintained",
  "4132": "anial",
  "4133": " try",
  "4134": " emergency",
  "4135": " analog",
  "4136": " emot",
  "4137": " writ",
  "4138": " vent",
  "4139": " schem",
  "4140": "56",
  "4141": " equal",
  "4142": " 52",
  "4143": "itoneal",
  "4144": " achieve",
  "4145": " tet",
  "4146": "erved",
  "4147": "orter",
  "4148": "02",
  "4149": " rank",
  "4150": " benefits",
  "4151": " eg",
  "4152": "orth",
  "4153": "reek",
  "4154": "poc",
  "4155": " la",
  "4156": " spread",
  "4157": " detailed",
  "4158": " supported",
  "4159": " deep",
  "4160": " duct",
  "4161": " caps",
  "4162": " 56",
  "4163": "79",
  "4164": " lc",
  "4165": " complexes",
  "4166": " conclusion",
  "4167": " ast",
  "4168": "kele",
  "4169": " laser",
  "4170": " thought",
  "4171": " pathology",
  "4172": " nh",
  "4173": " organization",
  "4174": "osomes",
  "4175": "brid",
  "4176": " typically",
  "4177": "iction",
  "4178": " reactive",
  "4179": " trend",
  "4180": " sed",
  "4181": "active",
  "4182": "pha",
  "4183": " 400",
  "4184": " extraction",
  "4185": "trans",
  "4186": " tit",
  "4187": " extension",
  "4188": " sulf",
  "4189": " olig",
  "4190": "ested",
  "4191": "side",
  "4192": " probability",
  "4193": " wind",
  "4194": " pancreatic",
  "4195": " hospitals",
  "4196": " started",
  "4197": " you",
  "4198": " depending",
  "4199": " carbon",
  "4200": "ounts",
  "4201": "naptic",
  "4202": " genotype",
  "4203": " cam",
  "4204": "ontin",
  "4205": "nt",
  "4206": " effectiveness",
  "4207": " fever",
  "4208": " retinal",
  "4209": " gi",
  "4210": " athe",
  "4211": "ww",
  "4212": " supporting",
  "4213": " probe",
  "4214": " nt",
  "4215": " encod",
  "4216": " pac",
  "4217": " aggreg",
  "4218": " const",
  "4219": " name",
  "4220": " incorpor",
  "4221": "helium",
  "4222": " visit",
  "4223": " safe",
  "4224": "ritis",
  "4225": " ros",
  "4226": " saline",
  "4227": " arch",
  "4228": "iform",
  "4229": " tc",
  "4230": " brief",
  "4231": "keletal",
  "4232": " categories",
  "4233": "rams",
  "4234": " ligand",
  "4235": "known",
  "4236": " cad",
  "4237": "estern",
  "4238": " therap",
  "4239": " thin",
  "4240": " paral",
  "4241": " orient",
  "4242": " gain",
  "4243": " documented",
  "4244": " cytoplas",
  "4245": "hesized",
  "4246": " vein",
  "4247": " pse",
  "4248": " pk",
  "4249": " nons",
  "4250": "ingu",
  "4251": " basic",
  "4252": " fusion",
  "4253": "fp",
  "4254": " phosphorylation",
  "4255": "06",
  "4256": " providing",
  "4257": " recomb",
  "4258": " qual",
  "4259": " technology",
  "4260": " manner",
  "4261": " adequate",
  "4262": " possib",
  "4263": "ometry",
  "4264": " observations",
  "4265": "phyl",
  "4266": " np",
  "4267": " tgf",
  "4268": "ided",
  "4269": "ote",
  "4270": " own",
  "4271": "sym",
  "4272": " targeted",
  "4273": "rox",
  "4274": "radi",
  "4275": " spati",
  "4276": " radical",
  "4277": " neurological",
  "4278": " united",
  "4279": " pelv",
  "4280": " evolution",
  "4281": " chi",
  "4282": " comparable",
  "4283": " parameter",
  "4284": " migration",
  "4285": " apparent",
  "4286": " appearance",
  "4287": " spont",
  "4288": " highlight",
  "4289": " gy",
  "4290": "85",
  "4291": " compl",
  "4292": "ogram",
  "4293": "ament",
  "4294": "pocamp",
  "4295": " unknown",
  "4296": " hd",
  "4297": "oses",
  "4298": " remain",
  "4299": "ata",
  "4300": "]{",
  "4301": "03",
  "4302": " spontaneous",
  "4303": " venous",
  "4304": "care",
  "4305": " elements",
  "4306": " centers",
  "4307": "fon",
  "4308": " seem",
  "4309": " 120",
  "4310": " characteristic",
  "4311": " subst",
  "4312": " personal",
  "4313": " gas",
  "4314": " mitochondrial",
  "4315": " employed",
  "4316": " definition",
  "4317": " balance",
  "4318": " selective",
  "4319": " band",
  "4320": "04",
  "4321": " transl",
  "4322": " neuronal",
  "4323": "otide",
  "4324": "upg",
  "4325": " purpose",
  "4326": " extreme",
  "4327": " stabil",
  "4328": " reson",
  "4329": "version",
  "4330": " cord",
  "4331": "inity",
  "4332": " tip",
  "4333": " manufacture",
  "4334": " knee",
  "4335": "odyn",
  "4336": " pseud",
  "4337": "ysym",
  "4338": " preparation",
  "4339": " attributed",
  "4340": "wasysym",
  "4341": "upgreek",
  "4342": "symb",
  "4343": "rsfs",
  "4344": "mathrsfs",
  "4345": "fonts",
  "4346": "bsy",
  "4347": "amssymb",
  "4348": "amsmath",
  "4349": "amsfonts",
  "4350": "amsbsy",
  "4351": " researchers",
  "4352": "osomal",
  "4353": " sources",
  "4354": " peptides",
  "4355": " csf",
  "4356": " div",
  "4357": " collagen",
  "4358": "ibular",
  "4359": "minimal",
  "4360": " regulatory",
  "4361": " fer",
  "4362": " acquired",
  "4363": "ordance",
  "4364": "ades",
  "4365": " dd",
  "4366": "gi",
  "4367": " nurses",
  "4368": " vector",
  "4369": " variance",
  "4370": "amics",
  "4371": " sexual",
  "4372": " true",
  "4373": " seiz",
  "4374": " 68",
  "4375": "chym",
  "4376": " choice",
  "4377": " bias",
  "4378": "ills",
  "4379": " atom",
  "4380": " {}{",
  "4381": " washed",
  "4382": " spine",
  "4383": " {}{-",
  "4384": " defects",
  "4385": " associations",
  "4386": "itable",
  "4387": " solutions",
  "4388": " emph",
  "4389": " tlr",
  "4390": " morbidity",
  "4391": " hippocamp",
  "4392": "stead",
  "4393": "asia",
  "4394": " intestinal",
  "4395": " 2014",
  "4396": " ethn",
  "4397": " defect",
  "4398": " efficiency",
  "4399": " unlike",
  "4400": "osal",
  "4401": " spectra",
  "4402": " bow",
  "4403": " centrif",
  "4404": "ga",
  "4405": "63",
  "4406": " media",
  "4407": " fal",
  "4408": " benign",
  "4409": " differ",
  "4410": " biomark",
  "4411": " western",
  "4412": " hol",
  "4413": "hyth",
  "4414": " plan",
  "4415": "rium",
  "4416": " vaccine",
  "4417": "ptin",
  "4418": " vag",
  "4419": " hba",
  "4420": " counter",
  "4421": " infect",
  "4422": " rp",
  "4423": " ring",
  "4424": " mn",
  "4425": " ranging",
  "4426": " predominant",
  "4427": " node",
  "4428": " theory",
  "4429": " 85",
  "4430": " regulated",
  "4431": "arian",
  "4432": " address",
  "4433": " gradu",
  "4434": " accurate",
  "4435": " aspir",
  "4436": " residual",
  "4437": " thereby",
  "4438": " donor",
  "4439": " onc",
  "4440": " percept",
  "4441": " give",
  "4442": " examine",
  "4443": " epidem",
  "4444": " contains",
  "4445": " column",
  "4446": " asked",
  "4447": " dele",
  "4448": "ialysis",
  "4449": " accomp",
  "4450": " commerc",
  "4451": " targets",
  "4452": " phenotype",
  "4453": " capt",
  "4454": " break",
  "4455": " reverse",
  "4456": " fed",
  "4457": " aneurys",
  "4458": " issues",
  "4459": " simult",
  "4460": " anova",
  "4461": " promote",
  "4462": " correspond",
  "4463": " focused",
  "4464": " behavioral",
  "4465": " instead",
  "4466": " histopath",
  "4467": " bor",
  "4468": " primarily",
  "4469": " 2001",
  "4470": " ratios",
  "4471": " defic",
  "4472": " entr",
  "4473": " simultaneous",
  "4474": " muscles",
  "4475": "cribed",
  "4476": " pv",
  "4477": " genomic",
  "4478": " minor",
  "4479": " cytokine",
  "4480": " 59",
  "4481": " mutant",
  "4482": " contain",
  "4483": "ella",
  "4484": " consisted",
  "4485": " algorithm",
  "4486": " rol",
  "4487": "ancies",
  "4488": " whose",
  "4489": " inferior",
  "4490": " \"",
  "4491": "76",
  "4492": " allele",
  "4493": " aer",
  "4494": " pathological",
  "4495": " corneal",
  "4496": " aspects",
  "4497": " move",
  "4498": " creatinine",
  "4499": " copd",
  "4500": " mp",
  "4501": " bd",
  "4502": "ories",
  "4503": " dry",
  "4504": " physician",
  "4505": " always",
  "4506": "oxide",
  "4507": "acent",
  "4508": " equival",
  "4509": " sinus",
  "4510": " comparisons",
  "4511": " coefficient",
  "4512": " feature",
  "4513": " enter",
  "4514": " transplantation",
  "4515": " intervals",
  "4516": " fragment",
  "4517": " twice",
  "4518": "ash",
  "4519": " panel",
  "4520": " independ",
  "4521": " 54",
  "4522": "illing",
  "4523": " nk",
  "4524": " gold",
  "4525": " lowest",
  "4526": " asth",
  "4527": "nel",
  "4528": "ads",
  "4529": " window",
  "4530": " fatty",
  "4531": " pathogenesis",
  "4532": "lets",
  "4533": "}$",
  "4534": "ococ",
  "4535": "irect",
  "4536": " fibrosis",
  "4537": "mark",
  "4538": "lycer",
  "4539": " cavity",
  "4540": "erent",
  "4541": " sequencing",
  "4542": " necrosis",
  "4543": " 64",
  "4544": "ologists",
  "4545": " recognition",
  "4546": " subset",
  "4547": " tuber",
  "4548": " canal",
  "4549": " loop",
  "4550": " intermediate",
  "4551": " dend",
  "4552": " abund",
  "4553": " sept",
  "4554": " measuring",
  "4555": " discussed",
  "4556": "patient",
  "4557": " aging",
  "4558": "imic",
  "4559": "enge",
  "4560": " introduced",
  "4561": " ck",
  "4562": "overed",
  "4563": " psychological",
  "4564": "iate",
  "4565": " hormone",
  "4566": "0001",
  "4567": "64",
  "4568": "ded",
  "4569": " initiation",
  "4570": " fung",
  "4571": " matter",
  "4572": "ton",
  "4573": " service",
  "4574": " infarction",
  "4575": " indirect",
  "4576": " dement",
  "4577": "stream",
  "4578": " cultures",
  "4579": " amb",
  "4580": " thorac",
  "4581": " overe",
  "4582": " disrup",
  "4583": " laparoscopic",
  "4584": " delayed",
  "4585": " pool",
  "4586": " metastases",
  "4587": " az",
  "4588": "gans",
  "4589": " liqu",
  "4590": " illustr",
  "4591": " glass",
  "4592": " traditional",
  "4593": " separate",
  "4594": " country",
  "4595": "-(",
  "4596": " fetal",
  "4597": "hens",
  "4598": " predictive",
  "4599": " chol",
  "4600": "uation",
  "4601": "uary",
  "4602": " variability",
  "4603": " estimates",
  "4604": " serious",
  "4605": " persons",
  "4606": " rib",
  "4607": " limb",
  "4608": " favor",
  "4609": "wh",
  "4610": "apse",
  "4611": " ventil",
  "4612": " overl",
  "4613": " &",
  "4614": " channel",
  "4615": " cx",
  "4616": " strat",
  "4617": " fractures",
  "4618": "rect",
  "4619": " htt",
  "4620": " swit",
  "4621": " starting",
  "4622": " phosphate",
  "4623": " causing",
  "4624": " extended",
  "4625": " radiograph",
  "4626": " mode",
  "4627": " inhibitory",
  "4628": "lycemia",
  "4629": " mhz",
  "4630": " enhancement",
  "4631": "uments",
  "4632": "eli",
  "4633": " sets",
  "4634": " exhibited",
  "4635": " prolonged",
  "4636": " cox",
  "4637": "roscler",
  "4638": " adjacent",
  "4639": " ub",
  "4640": " injuries",
  "4641": " objective",
  "4642": " lik",
  "4643": " sr",
  "4644": "obic",
  "4645": " steps",
  "4646": " programs",
  "4647": "intestinal",
  "4648": "con",
  "4649": ".5",
  "4650": " overexp",
  "4651": " resonance",
  "4652": " plasm",
  "4653": " numerous",
  "4654": " lum",
  "4655": " healthcare",
  "4656": " 53",
  "4657": " extracellular",
  "4658": " composite",
  "4659": " toxic",
  "4660": "uting",
  "4661": " pf",
  "4662": " myel",
  "4663": " tm",
  "4664": " matched",
  "4665": " institutional",
  "4666": "point",
  "4667": " antagon",
  "4668": " expect",
  "4669": " cry",
  "4670": " issue",
  "4671": "imet",
  "4672": " disability",
  "4673": " altered",
  "4674": " uv",
  "4675": "74",
  "4676": "08",
  "4677": " aortic",
  "4678": " regist",
  "4679": "ban",
  "4680": " degradation",
  "4681": "np",
  "4682": " insuff",
  "4683": " plays",
  "4684": " fm",
  "4685": "theless",
  "4686": " odds",
  "4687": "month",
  "4688": " nevertheless",
  "4689": " concluded",
  "4690": " edema",
  "4691": " cycles",
  "4692": "umab",
  "4693": " targeting",
  "4694": " ensure",
  "4695": " gradi",
  "4696": " existing",
  "4697": " randomly",
  "4698": " rich",
  "4699": " atp",
  "4700": " stained",
  "4701": " gastrointestinal",
  "4702": " depth",
  "4703": "ued",
  "4704": " ethics",
  "4705": "98",
  "4706": " summar",
  "4707": " instrument",
  "4708": " interpret",
  "4709": " centrifug",
  "4710": " logistic",
  "4711": " concern",
  "4712": " endogenous",
  "4713": " cereb",
  "4714": " 51",
  "4715": " mi",
  "4716": "son",
  "4717": " written",
  "4718": " relationships",
  "4719": " revers",
  "4720": " hepatitis",
  "4721": " therapies",
  "4722": " degen",
  "4723": " tail",
  "4724": "herence",
  "4725": " particles",
  "4726": "back",
  "4727": "onin",
  "4728": "clude",
  "4729": " oil",
  "4730": " recip",
  "4731": " histological",
  "4732": " ging",
  "4733": " diver",
  "4734": " needle",
  "4735": " contained",
  "4736": " assigned",
  "4737": " cc",
  "4738": " somet",
  "4739": " influenz",
  "4740": " injected",
  "4741": " atten",
  "4742": " atheroscler",
  "4743": " systolic",
  "4744": " respondents",
  "4745": " dementia",
  "4746": " variants",
  "4747": " impl",
  "4748": "odes",
  "4749": " shap",
  "4750": "olute",
  "4751": " describe",
  "4752": " conserv",
  "4753": " profiles",
  "4754": " plot",
  "4755": " undergoing",
  "4756": " stop",
  "4757": " antioxid",
  "4758": " purified",
  "4759": " cultured",
  "4760": "press",
  "4761": " feed",
  "4762": "sw",
  "4763": " cla",
  "4764": " vegf",
  "4765": " possibly",
  "4766": " phenomen",
  "4767": " nodes",
  "4768": " challenge",
  "4769": " antibiotics",
  "4770": " rr",
  "4771": " dynamic",
  "4772": " circul",
  "4773": " ing",
  "4774": "otrop",
  "4775": " protective",
  "4776": " alpha",
  "4777": " vel",
  "4778": " towards",
  "4779": " lang",
  "4780": " eosin",
  "4781": "ran",
  "4782": " begin",
  "4783": " pulse",
  "4784": " bowel",
  "4785": " axial",
  "4786": " lens",
  "4787": " cortic",
  "4788": " frequencies",
  "4789": " diffuse",
  "4790": "uz",
  "4791": "agg",
  "4792": " continued",
  "4793": " word",
  "4794": " uk",
  "4795": " smooth",
  "4796": " presenting",
  "4797": " iso",
  "4798": " collect",
  "4799": " beta",
  "4800": " sigma",
  "4801": " polar",
  "4802": "used",
  "4803": "tenance",
  "4804": " student",
  "4805": " recognized",
  "4806": "ropathy",
  "4807": " maintenance",
  "4808": " ni",
  "4809": " income",
  "4810": " exclusion",
  "4811": " 96",
  "4812": " portion",
  "4813": " reporting",
  "4814": " labeled",
  "4815": " absolute",
  "4816": "ometer",
  "4817": " socio",
  "4818": " ischemic",
  "4819": " ren",
  "4820": " assays",
  "4821": " reconstruction",
  "4822": "aa",
  "4823": "iring",
  "4824": " malaria",
  "4825": " dest",
  "4826": " stre",
  "4827": " multivariate",
  "4828": " communication",
  "4829": " beneficial",
  "4830": " bed",
  "4831": " blind",
  "4832": " spatial",
  "4833": " shape",
  "4834": " distingu",
  "4835": " too",
  "4836": " families",
  "4837": " asc",
  "4838": " easily",
  "4839": " european",
  "4840": " participant",
  "4841": " establish",
  "4842": " colleag",
  "4843": " south",
  "4844": " platelet",
  "4845": " scler",
  "4846": " exch",
  "4847": " antibiotic",
  "4848": " burden",
  "4849": " haem",
  "4850": " diast",
  "4851": " susceptibility",
  "4852": " compre",
  "4853": "rical",
  "4854": " transferred",
  "4855": " resin",
  "4856": " mor",
  "4857": " errors",
  "4858": " tolerance",
  "4859": " conjug",
  "4860": " asthma",
  "4861": "ectin",
  "4862": " scal",
  "4863": " return",
  "4864": " nc",
  "4865": " lv",
  "4866": "..",
  "4867": " walking",
  "4868": "cn",
  "4869": " potent",
  "4870": " incubation",
  "4871": " failed",
  "4872": " regional",
  "4873": " rapidly",
  "4874": " drain",
  "4875": " admitted",
  "4876": "97",
  "4877": " latter",
  "4878": "//",
  "4879": " advantage",
  "4880": " records",
  "4881": " decline",
  "4882": " complication",
  "4883": " nanop",
  "4884": "58",
  "4885": " mostly",
  "4886": " representative",
  "4887": " prefer",
  "4888": " infants",
  "4889": " category",
  "4890": " meet",
  "4891": " china",
  "4892": " input",
  "4893": "ria",
  "4894": "ocation",
  "4895": "rate",
  "4896": "96",
  "4897": " hemorrhage",
  "4898": " dy",
  "4899": "mber",
  "4900": "bre",
  "4901": "com",
  "4902": " box",
  "4903": " 66",
  "4904": " upreg",
  "4905": " tools",
  "4906": " mell",
  "4907": " investigations",
  "4908": " clinici",
  "4909": " channels",
  "4910": " board",
  "4911": "position",
  "4912": " subty",
  "4913": " shift",
  "4914": " visits",
  "4915": " colleagues",
  "4916": " explan",
  "4917": " appeared",
  "4918": " itself",
  "4919": "umbar",
  "4920": "cents",
  "4921": "://",
  "4922": " invasion",
  "4923": " uter",
  "4924": "illin",
  "4925": " healing",
  "4926": " tri",
  "4927": " disp",
  "4928": "bc",
  "4929": " careful",
  "4930": " pit",
  "4931": " emp",
  "4932": " discre",
  "4933": "certain",
  "4934": " intensive",
  "4935": " alterations",
  "4936": " absorption",
  "4937": " successfully",
  "4938": " gab",
  "4939": "va",
  "4940": " workers",
  "4941": " look",
  "4942": "onucle",
  "4943": " relax",
  "4944": "hd",
  "4945": " younger",
  "4946": " receive",
  "4947": " complement",
  "4948": " hydrogen",
  "4949": " chromat",
  "4950": " society",
  "4951": "romet",
  "4952": "hal",
  "4953": " hemoglobin",
  "4954": "ellow",
  "4955": "rown",
  "4956": "off",
  "4957": "ceed",
  "4958": " actin",
  "4959": " computer",
  "4960": " gd",
  "4961": " comprehens",
  "4962": "rd",
  "4963": " delay",
  "4964": " cis",
  "4965": "renal",
  "4966": "isc",
  "4967": "fl",
  "4968": " hypog",
  "4969": "nia",
  "4970": " lymphocytes",
  "4971": " autophag",
  "4972": " surfaces",
  "4973": " gover",
  "4974": "yp",
  "4975": "ensus",
  "4976": "iltration",
  "4977": "inflamm",
  "4978": " urban",
  "4979": " crp",
  "4980": " adhesion",
  "4981": " equation",
  "4982": " cham",
  "4983": " author",
  "4984": " molar",
  "4985": " influenza",
  "4986": " accordance",
  "4987": " neutral",
  "4988": " princip",
  "4989": " pediatric",
  "4990": " autoimmun",
  "4991": " polic",
  "4992": " get",
  "4993": "rees",
  "4994": "iness",
  "4995": "ohist",
  "4996": " dors",
  "4997": " sensory",
  "4998": " gc",
  "4999": " nar",
  "5000": " liquid",
  "5001": "het",
  "5002": " adolescents",
  "5003": " periods",
  "5004": " gland",
  "5005": " cruc",
  "5006": " correction",
  "5007": " million",
  "5008": " mellitus",
  "5009": "organ",
  "5010": "osity",
  "5011": " manufacturer",
  "5012": " infusion",
  "5013": " represented",
  "5014": "otomy",
  "5015": " specimen",
  "5016": " sciences",
  "5017": " missing",
  "5018": " distributed",
  "5019": " tur",
  "5020": " biochemical",
  "5021": " slic",
  "5022": " ovarian",
  "5023": " chromosome",
  "5024": " tg",
  "5025": " orb",
  "5026": " ves",
  "5027": " cataly",
  "5028": "ira",
  "5029": " participation",
  "5030": "psy",
  "5031": "ocar",
  "5032": " occurring",
  "5033": " sten",
  "5034": " microscopy",
  "5035": "osen",
  "5036": " ju",
  "5037": " cf",
  "5038": " details",
  "5039": " inn",
  "5040": " 67",
  "5041": " foot",
  "5042": " disturb",
  "5043": "osing",
  "5044": " hab",
  "5045": " paralle",
  "5046": " limitation",
  "5047": " milk",
  "5048": "rose",
  "5049": "psis",
  "5050": " suspected",
  "5051": " sectional",
  "5052": " enrolled",
  "5053": " neutroph",
  "5054": "ni",
  "5055": " coli",
  "5056": " articles",
  "5057": " sir",
  "5058": " prognostic",
  "5059": " graph",
  "5060": " efficient",
  "5061": " organs",
  "5062": "uvant",
  "5063": " suppress",
  "5064": " hybrid",
  "5065": "ylation",
  "5066": "ancing",
  "5067": "acer",
  "5068": " hair",
  "5069": " aud",
  "5070": " 62",
  "5071": " reliability",
  "5072": "oman",
  "5073": " consequently",
  "5074": " overlap",
  "5075": "ison",
  "5076": "oscopy",
  "5077": " staff",
  "5078": " output",
  "5079": " marrow",
  "5080": " pregnant",
  "5081": " gir",
  "5082": " stored",
  "5083": " drop",
  "5084": "vascular",
  "5085": " outside",
  "5086": " ions",
  "5087": "ctors",
  "5088": " gest",
  "5089": " tun",
  "5090": " immunohist",
  "5091": " statistics",
  "5092": "ipid",
  "5093": " separated",
  "5094": " screw",
  "5095": " morphology",
  "5096": "angi",
  "5097": " bey",
  "5098": " bin",
  "5099": " localized",
  "5100": " fd",
  "5101": " diffusion",
  "5102": " surrounding",
  "5103": " subun",
  "5104": " fibers",
  "5105": "rotid",
  "5106": " sepsis",
  "5107": " 63",
  "5108": "vari",
  "5109": " haz",
  "5110": " eb",
  "5111": " correlations",
  "5112": " nucleus",
  "5113": " involves",
  "5114": " discharge",
  "5115": " gla",
  "5116": " airway",
  "5117": "ifying",
  "5118": "7.",
  "5119": "ophage",
  "5120": "09",
  "5121": " vessel",
  "5122": " gap",
  "5123": "sk",
  "5124": "59",
  "5125": " infectious",
  "5126": "ycin",
  "5127": " vision",
  "5128": " interface",
  "5129": "dh",
  "5130": " let",
  "5131": "secut",
  "5132": " roles",
  "5133": " casp",
  "5134": " parts",
  "5135": " priv",
  "5136": "acin",
  "5137": " reached",
  "5138": " femoral",
  "5139": " beyond",
  "5140": " instruction",
  "5141": " hcc",
  "5142": "asty",
  "5143": "perm",
  "5144": "obacter",
  "5145": " schiz",
  "5146": " lifest",
  "5147": "_{",
  "5148": " equip",
  "5149": " chosen",
  "5150": " resources",
  "5151": " round",
  "5152": " medial",
  "5153": " devices",
  "5154": " nanopart",
  "5155": " swelling",
  "5156": " frontal",
  "5157": " progress",
  "5158": " filter",
  "5159": "achment",
  "5160": " motion",
  "5161": " dog",
  "5162": " dominant",
  "5163": " obstruction",
  "5164": " assemb",
  "5165": "max",
  "5166": " nerv",
  "5167": "part",
  "5168": " incident",
  "5169": " consists",
  "5170": "72",
  "5171": " veloc",
  "5172": " hpv",
  "5173": " economic",
  "5174": "ches",
  "5175": " ocular",
  "5176": " decreases",
  "5177": " stimulated",
  "5178": "0.00",
  "5179": " skeletal",
  "5180": " http",
  "5181": " regen",
  "5182": " fatig",
  "5183": " accel",
  "5184": "ani",
  "5185": " substantial",
  "5186": " situation",
  "5187": " egfr",
  "5188": " tubercul",
  "5189": " practices",
  "5190": " hg",
  "5191": " goal",
  "5192": " cyp",
  "5193": " overweight",
  "5194": "acet",
  "5195": " replacement",
  "5196": " ranged",
  "5197": "portun",
  "5198": " consecut",
  "5199": "ophren",
  "5200": " nearly",
  "5201": " equivalent",
  "5202": "ptomatic",
  "5203": " modification",
  "5204": "queous",
  "5205": " stimuli",
  "5206": " shorter",
  "5207": "inflammatory",
  "5208": " plates",
  "5209": "imer",
  "5210": "86",
  "5211": " neon",
  "5212": " reliable",
  "5213": " analges",
  "5214": " salt",
  "5215": " vital",
  "5216": " opportun",
  "5217": " variant",
  "5218": " placement",
  "5219": " fiber",
  "5220": " expand",
  "5221": " belong",
  "5222": " focal",
  "5223": "cat",
  "5224": " mann",
  "5225": " knock",
  "5226": " counts",
  "5227": "pan",
  "5228": " uncle",
  "5229": " forward",
  "5230": "igible",
  "5231": "azole",
  "5232": " risks",
  "5233": " 99",
  "5234": "54",
  "5235": " summary",
  "5236": "ophageal",
  "5237": "enic",
  "5238": " pneumonia",
  "5239": "olds",
  "5240": "fr",
  "5241": " vertical",
  "5242": " nine",
  "5243": " promoter",
  "5244": " expressing",
  "5245": "ero",
  "5246": " suitable",
  "5247": " precise",
  "5248": " generate",
  "5249": " composed",
  "5250": "night",
  "5251": " gradient",
  "5252": " exhibit",
  "5253": " catal",
  "5254": "ai",
  "5255": " jo",
  "5256": " inner",
  "5257": " ethanol",
  "5258": " mirna",
  "5259": " aqueous",
  "5260": "ophys",
  "5261": " deaths",
  "5262": "po",
  "5263": " charge",
  "5264": " sarc",
  "5265": " prediction",
  "5266": " korea",
  "5267": " actual",
  "5268": " suic",
  "5269": " independently",
  "5270": " stay",
  "5271": " dark",
  "5272": " electroph",
  "5273": " answ",
  "5274": "ework",
  "5275": " eryth",
  "5276": "ocrine",
  "5277": " dt",
  "5278": "wide",
  "5279": "ada",
  "5280": " simulation",
  "5281": " participate",
  "5282": " hydrox",
  "5283": " fibrobl",
  "5284": " angiography",
  "5285": "61",
  "5286": "62",
  "5287": " infiltration",
  "5288": " immunos",
  "5289": " excell",
  "5290": " science",
  "5291": " closely",
  "5292": "itudinal",
  "5293": " gm",
  "5294": " bul",
  "5295": " unclear",
  "5296": " trun",
  "5297": " regimen",
  "5298": " ye",
  "5299": " mothers",
  "5300": " mirnas",
  "5301": "oidal",
  "5302": " protection",
  "5303": " enough",
  "5304": " melanoma",
  "5305": " govern",
  "5306": " enl",
  "5307": " dup",
  "5308": " aug",
  "5309": " settings",
  "5310": " nervous",
  "5311": " lumbar",
  "5312": " gh",
  "5313": " skills",
  "5314": "des",
  "5315": " saliv",
  "5316": " rural",
  "5317": " congen",
  "5318": "ologist",
  "5319": " nursing",
  "5320": " recruited",
  "5321": "omical",
  "5322": "illance",
  "5323": " option",
  "5324": "estion",
  "5325": " heat",
  "5326": " expans",
  "5327": " confound",
  "5328": "itant",
  "5329": "ilateral",
  "5330": "ache",
  "5331": "aced",
  "5332": " albumin",
  "5333": "isions",
  "5334": " ulcer",
  "5335": " langu",
  "5336": " determination",
  "5337": " 61",
  "5338": "no",
  "5339": " schizophren",
  "5340": " emotional",
  "5341": " code",
  "5342": " aggressive",
  "5343": " facilitate",
  "5344": " stri",
  "5345": " reh",
  "5346": " framework",
  "5347": "iltr",
  "5348": " facial",
  "5349": " affinity",
  "5350": " pure",
  "5351": " antig",
  "5352": " fields",
  "5353": " amounts",
  "5354": " perce",
  "5355": " fist",
  "5356": " fis",
  "5357": "idal",
  "5358": " descript",
  "5359": " dendrit",
  "5360": " absorb",
  "5361": "opic",
  "5362": " primers",
  "5363": " educational",
  "5364": " insertion",
  "5365": " hospitalization",
  "5366": " motif",
  "5367": " etc",
  "5368": "lim",
  "5369": " thym",
  "5370": " fatigue",
  "5371": "ump",
  "5372": "ogens",
  "5373": "genic",
  "5374": "ozyg",
  "5375": " rise",
  "5376": " mas",
  "5377": " retrie",
  "5378": "52",
  "5379": " nasal",
  "5380": " iod",
  "5381": " recruit",
  "5382": "urance",
  "5383": " contribution",
  "5384": " rabb",
  "5385": " du",
  "5386": " clar",
  "5387": " 1000",
  "5388": " overnight",
  "5389": " growing",
  "5390": "roscopy",
  "5391": "ients",
  "5392": " performing",
  "5393": " stated",
  "5394": " fing",
  "5395": "aine",
  "5396": " strom",
  "5397": " displayed",
  "5398": " quad",
  "5399": " persistent",
  "5400": " mucosa",
  "5401": " membranes",
  "5402": " evident",
  "5403": " 69",
  "5404": "sa",
  "5405": "orous",
  "5406": " leak",
  "5407": " false",
  "5408": " comorbid",
  "5409": "elihood",
  "5410": " myc",
  "5411": " lifestyle",
  "5412": "oper",
  "5413": "isp",
  "5414": " ground",
  "5415": " fixation",
  "5416": " crucial",
  "5417": "isa",
  "5418": " asymptomatic",
  "5419": " organic",
  "5420": " househ",
  "5421": " affecting",
  "5422": " carry",
  "5423": " 94",
  "5424": " pb",
  "5425": " breat",
  "5426": " solvent",
  "5427": " why",
  "5428": " surveillance",
  "5429": "irus",
  "5430": " infiltr",
  "5431": " scans",
  "5432": " hazard",
  "5433": "89",
  "5434": " parallel",
  "5435": " longitudinal",
  "5436": " hypox",
  "5437": "omatic",
  "5438": " residue",
  "5439": " mach",
  "5440": "phthal",
  "5441": " circumf",
  "5442": " theore",
  "5443": " plaque",
  "5444": " organisms",
  "5445": " likelihood",
  "5446": " dynamics",
  "5447": "izations",
  "5448": "isition",
  "5449": "enia",
  "5450": " junction",
  "5451": " glauc",
  "5452": " onto",
  "5453": " exchange",
  "5454": " dimensions",
  "5455": " psychiatric",
  "5456": " ultrason",
  "5457": " standardized",
  "5458": " ethical",
  "5459": " diastolic",
  "5460": " bott",
  "5461": " horiz",
  "5462": " cvd",
  "5463": "ostasis",
  "5464": " shock",
  "5465": " team",
  "5466": " behaviors",
  "5467": "robial",
  "5468": " ter",
  "5469": " element",
  "5470": " created",
  "5471": " became",
  "5472": " 1999",
  "5473": " fresh",
  "5474": " vacu",
  "5475": " ect",
  "5476": " deriv",
  "5477": " benz",
  "5478": " anth",
  "5479": " discontin",
  "5480": " corticoster",
  "5481": " drink",
  "5482": " native",
  "5483": " dissection",
  "5484": "oxyl",
  "5485": " jan",
  "5486": " curves",
  "5487": " acquisition",
  "5488": " variations",
  "5489": " positions",
  "5490": " plane",
  "5491": " keep",
  "5492": " irradi",
  "5493": " dimensional",
  "5494": " clusters",
  "5495": "cp",
  "5496": " dentin",
  "5497": "ister",
  "5498": " nac",
  "5499": " functioning",
  "5500": " radiotherapy",
  "5501": " discrim",
  "5502": "exp",
  "5503": " extrem",
  "5504": " egg",
  "5505": "nat",
  "5506": " maximal",
  "5507": " instruments",
  "5508": " cytotox",
  "5509": " systematic",
  "5510": " determining",
  "5511": " malignancy",
  "5512": "kin",
  "5513": " lymphoma",
  "5514": " dn",
  "5515": " circulating",
  "5516": " guide",
  "5517": " changed",
  "5518": "84",
  "5519": "rab",
  "5520": "rant",
  "5521": "alian",
  "5522": " seconds",
  "5523": " induces",
  "5524": "ocarcin",
  "5525": " stenosis",
  "5526": " mandibular",
  "5527": " formal",
  "5528": " accompan",
  "5529": " nic",
  "5530": " improving",
  "5531": "jection",
  "5532": "71",
  "5533": " wr",
  "5534": " immediate",
  "5535": " barrier",
  "5536": "aves",
  "5537": " penet",
  "5538": " embol",
  "5539": " cart",
  "5540": " rup",
  "5541": " oxidation",
  "5542": " influenced",
  "5543": "iph",
  "5544": " regardless",
  "5545": "cm",
  "5546": ")(",
  "5547": " woman",
  "5548": " simulations",
  "5549": " modul",
  "5550": " narrow",
  "5551": " hypoth",
  "5552": " 79",
  "5553": " differentiated",
  "5554": " width",
  "5555": " triglycer",
  "5556": " qol",
  "5557": " whom",
  "5558": " mv",
  "5559": " fibr",
  "5560": " died",
  "5561": " equil",
  "5562": " mother",
  "5563": " affects",
  "5564": " sperm",
  "5565": " prescribed",
  "5566": " intact",
  "5567": " requiring",
  "5568": " technologies",
  "5569": " inact",
  "5570": " developmental",
  "5571": " ages",
  "5572": " san",
  "5573": " antimic",
  "5574": "ocytosis",
  "5575": " agon",
  "5576": " sense",
  "5577": " anc",
  "5578": " allowing",
  "5579": " vaccination",
  "5580": " obvious",
  "5581": " aspect",
  "5582": " synaptic",
  "5583": " varied",
  "5584": " leptin",
  "5585": " lps",
  "5586": "cranial",
  "5587": " td",
  "5588": "clin",
  "5589": " coverage",
  "5590": " recombinant",
  "5591": " kept",
  "5592": "lin",
  "5593": " hydroph",
  "5594": " camp",
  "5595": " schizophrenia",
  "5596": " om",
  "5597": " icu",
  "5598": " amyl",
  "5599": " 71",
  "5600": "weighted",
  "5601": "avage",
  "5602": " normalized",
  "5603": "imate",
  "5604": " decreasing",
  "5605": "plate",
  "5606": "ocardi",
  "5607": " sometimes",
  "5608": " ah",
  "5609": " precurs",
  "5610": " ischemia",
  "5611": " glomer",
  "5612": " efforts",
  "5613": " 250",
  "5614": "51",
  "5615": ".0",
  "5616": " dried",
  "5617": "mi",
  "5618": " nucleotide",
  "5619": " difficulty",
  "5620": " antimicrobial",
  "5621": "alities",
  "5622": " reag",
  "5623": " extremely",
  "5624": " comprehensive",
  "5625": " cit",
  "5626": " autoimmune",
  "5627": " norm",
  "5628": " depends",
  "5629": "93",
  "5630": " symptomatic",
  "5631": " predictor",
  "5632": " cystic",
  "5633": "formin",
  "5634": "cus",
  "5635": " unre",
  "5636": " cytos",
  "5637": " covari",
  "5638": "odynamic",
  "5639": " released",
  "5640": " pelvic",
  "5641": " uns",
  "5642": " replication",
  "5643": " lipoprotein",
  "5644": " identical",
  "5645": "fe",
  "5646": " pairs",
  "5647": " consensus",
  "5648": " viruses",
  "5649": " satisfaction",
  "5650": " metformin",
  "5651": "pes",
  "5652": "pass",
  "5653": " instance",
  "5654": " insp",
  "5655": " alt",
  "5656": " subjected",
  "5657": " optical",
  "5658": " microscope",
  "5659": " diluted",
  "5660": " validated",
  "5661": " strict",
  "5662": " conserved",
  "5663": " excision",
  "5664": " epithelium",
  "5665": " scheme",
  "5666": " incision",
  "5667": " 78",
  "5668": "anned",
  "5669": " excellent",
  "5670": "au",
  "5671": " primer",
  "5672": " pret",
  "5673": "rig",
  "5674": " protocols",
  "5675": " bon",
  "5676": " aneurysm",
  "5677": " ads",
  "5678": "isol",
  "5679": " hu",
  "5680": " fif",
  "5681": " meaning",
  "5682": " display",
  "5683": " congenital",
  "5684": "vas",
  "5685": " cover",
  "5686": " clean",
  "5687": " bes",
  "5688": " tert",
  "5689": " gram",
  "5690": " connect",
  "5691": " #",
  "5692": "vered",
  "5693": " retro",
  "5694": " noise",
  "5695": " 98",
  "5696": "arin",
  "5697": " bind",
  "5698": "plasia",
  "5699": "nea",
  "5700": "asticity",
  "5701": " datas",
  "5702": " availability",
  "5703": " rod",
  "5704": " indust",
  "5705": " consisting",
  "5706": " ~",
  "5707": " yellow",
  "5708": " recording",
  "5709": "rp",
  "5710": " fa",
  "5711": " adjustment",
  "5712": " language",
  "5713": " remove",
  "5714": " tables",
  "5715": " plants",
  "5716": " consecutive",
  "5717": " restricted",
  "5718": " chamber",
  "5719": " anemia",
  "5720": " war",
  "5721": " consult",
  "5722": "aching",
  "5723": "hea",
  "5724": " periodontal",
  "5725": " antigens",
  "5726": " amp",
  "5727": "zil",
  "5728": "phosph",
  "5729": " layers",
  "5730": " seed",
  "5731": "key",
  "5732": "-b",
  "5733": " rv",
  "5734": "cript",
  "5735": " entry",
  "5736": " city",
  "5737": " applications",
  "5738": " zinc",
  "5739": " episodes",
  "5740": " examinations",
  "5741": "icillin",
  "5742": " robust",
  "5743": " psa",
  "5744": " accompanied",
  "5745": " subcutaneous",
  "5746": " transient",
  "5747": " largely",
  "5748": " beginning",
  "5749": " awareness",
  "5750": " mouth",
  "5751": " plat",
  "5752": " localization",
  "5753": " lobe",
  "5754": " largest",
  "5755": " options",
  "5756": " echocardi",
  "5757": " depressive",
  "5758": "emb",
  "5759": " users",
  "5760": " hearing",
  "5761": " rd",
  "5762": " antioxidant",
  "5763": " antide",
  "5764": " 73",
  "5765": " standards",
  "5766": " mening",
  "5767": "ips",
  "5768": " phyl",
  "5769": " reduces",
  "5770": " operating",
  "5771": " makes",
  "5772": " assumed",
  "5773": " cdcl",
  "5774": " recommendations",
  "5775": " covered",
  "5776": " digital",
  "5777": "fts",
  "5778": "ech",
  "5779": " velocity",
  "5780": " elisa",
  "5781": " perception",
  "5782": " otherwise",
  "5783": " carri",
  "5784": " ze",
  "5785": " tuberculosis",
  "5786": " soluble",
  "5787": " concerning",
  "5788": " complain",
  "5789": " deletion",
  "5790": " predictors",
  "5791": " gave",
  "5792": "87",
  "5793": " park",
  "5794": " conversion",
  "5795": " 1998",
  "5796": " magnitude",
  "5797": " clearance",
  "5798": "ians",
  "5799": "ky",
  "5800": " manip",
  "5801": " closed",
  "5802": " childhood",
  "5803": "iral",
  "5804": " validity",
  "5805": " occlusion",
  "5806": " anatomical",
  "5807": " antidepress",
  "5808": " iu",
  "5809": " occas",
  "5810": " aver",
  "5811": "iaz",
  "5812": ".(",
  "5813": " identity",
  "5814": " emphas",
  "5815": " accepted",
  "5816": " aust",
  "5817": " 74",
  "5818": " considerable",
  "5819": " normally",
  "5820": " lost",
  "5821": " icd",
  "5822": "where",
  "5823": "igm",
  "5824": " deple",
  "5825": "uity",
  "5826": " sizes",
  "5827": " live",
  "5828": " inside",
  "5829": " corrected",
  "5830": "orectal",
  "5831": " atrial",
  "5832": " rarely",
  "5833": " rhe",
  "5834": " user",
  "5835": " rig",
  "5836": " endoscopic",
  "5837": " concom",
  "5838": " bran",
  "5839": " endomet",
  "5840": " abd",
  "5841": " tel",
  "5842": " granul",
  "5843": "week",
  "5844": " scar",
  "5845": " promin",
  "5846": " north",
  "5847": " consequences",
  "5848": " divers",
  "5849": " consequence",
  "5850": " rect",
  "5851": "07",
  "5852": " january",
  "5853": " elevation",
  "5854": "amel",
  "5855": " regulate",
  "5856": " fisher",
  "5857": " ball",
  "5858": " smokers",
  "5859": " rehabil",
  "5860": " planning",
  "5861": " ord",
  "5862": " optic",
  "5863": " ligands",
  "5864": " thoracic",
  "5865": " proinflammatory",
  "5866": " evaluating",
  "5867": " dual",
  "5868": " carotid",
  "5869": " 2015",
  "5870": " atyp",
  "5871": " dece",
  "5872": " compens",
  "5873": " uncertain",
  "5874": " quite",
  "5875": " isolation",
  "5876": " insight",
  "5877": " fragments",
  "5878": " distinguish",
  "5879": " concomitant",
  "5880": "anged",
  "5881": "94",
  "5882": "berg",
  "5883": " tib",
  "5884": " sessions",
  "5885": " epile",
  "5886": " alignment",
  "5887": "atically",
  "5888": " zero",
  "5889": " importantly",
  "5890": "isation",
  "5891": "ba",
  "5892": " predominantly",
  "5893": " fewer",
  "5894": " coupled",
  "5895": "luor",
  "5896": " newly",
  "5897": " initiated",
  "5898": " exacer",
  "5899": " expansion",
  "5900": " dendritic",
  "5901": " vaginal",
  "5902": " ts",
  "5903": " aids",
  "5904": " snps",
  "5905": " flap",
  "5906": " encour",
  "5907": "herent",
  "5908": " zone",
  "5909": " involve",
  "5910": " apical",
  "5911": "rt",
  "5912": "83",
  "5913": " tasks",
  "5914": " mom",
  "5915": "rans",
  "5916": " session",
  "5917": " nanoparticles",
  "5918": " namely",
  "5919": " compression",
  "5920": " yeast",
  "5921": " extracts",
  "5922": " ka",
  "5923": " iop",
  "5924": " hla",
  "5925": " deficits",
  "5926": "hs",
  "5927": "axis",
  "5928": " translation",
  "5929": " arteries",
  "5930": " approval",
  "5931": "ryl",
  "5932": "elves",
  "5933": "82",
  "5934": " trained",
  "5935": " spin",
  "5936": " partially",
  "5937": " para",
  "5938": " ones",
  "5939": " transcriptional",
  "5940": " qualitative",
  "5941": " cum",
  "5942": " deform",
  "5943": " cold",
  "5944": "duced",
  "5945": " pert",
  "5946": " nd",
  "5947": " repeat",
  "5948": " deb",
  "5949": " biomarkers",
  "5950": " retin",
  "5951": " scoring",
  "5952": " feeding",
  "5953": " conservative",
  "5954": " adjuvant",
  "5955": " tt",
  "5956": " commercial",
  "5957": " mur",
  "5958": " identifying",
  "5959": " epiderm",
  "5960": " dro",
  "5961": " calculations",
  "5962": " buc",
  "5963": "oblast",
  "5964": "gm",
  "5965": " treating",
  "5966": " subt",
  "5967": " adipose",
  "5968": " demonstrating",
  "5969": "well",
  "5970": " varying",
  "5971": " transformation",
  "5972": " race",
  "5973": " contraction",
  "5974": "iciently",
  "5975": " producing",
  "5976": " ppm",
  "5977": " becomes",
  "5978": "ley",
  "5979": " sustained",
  "5980": " multi",
  "5981": " deficient",
  "5982": "raz",
  "5983": "ks",
  "5984": " diverse",
  "5985": " auc",
  "5986": "inter",
  "5987": "atus",
  "5988": " modifications",
  "5989": " initi",
  "5990": " analyze",
  "5991": "vity",
  "5992": " adop",
  "5993": " perceived",
  "5994": " neigh",
  "5995": " movements",
  "5996": " crystall",
  "5997": "reas",
  "5998": "ply",
  "5999": " prevalent",
  "6000": " coc",
  "6001": "load",
  "6002": " outpatient",
  "6003": " briefly",
  "6004": " vo",
  "6005": " preventing",
  "6006": " coupling",
  "6007": " brazil",
  "6008": " autophagy",
  "6009": " adrenal",
  "6010": " fp",
  "6011": "uous",
  "6012": "ogenetic",
  "6013": " private",
  "6014": " pip",
  "6015": " implicated",
  "6016": " hm",
  "6017": " cement",
  "6018": " instructions",
  "6019": " gt",
  "6020": " believe",
  "6021": " hex",
  "6022": " dialysis",
  "6023": " coding",
  "6024": " strand",
  "6025": " monitored",
  "6026": " interpretation",
  "6027": " inverse",
  "6028": " array",
  "6029": " purch",
  "6030": " ba",
  "6031": "ylated",
  "6032": " utilized",
  "6033": "vo",
  "6034": " susceptible",
  "6035": " separation",
  "6036": " nam",
  "6037": " mmp",
  "6038": "ologous",
  "6039": " immunity",
  "6040": " exacerb",
  "6041": "anted",
  "6042": "ht",
  "6043": " neoplas",
  "6044": " prophyl",
  "6045": "upp",
  "6046": " glaucoma",
  "6047": " peg",
  "6048": " mature",
  "6049": " border",
  "6050": " ho",
  "6051": " capable",
  "6052": "10.",
  "6053": ")/",
  "6054": " online",
  "6055": "olytic",
  "6056": "oden",
  "6057": " perman",
  "6058": " african",
  "6059": " polymorphism",
  "6060": " ly",
  "6061": " directed",
  "6062": " define",
  "6063": " 77",
  "6064": "veolar",
  "6065": "economic",
  "6066": " pay",
  "6067": " laborator",
  "6068": " limits",
  "6069": " cu",
  "6070": " append",
  "6071": " withd",
  "6072": " progen",
  "6073": " polymerase",
  "6074": " substrates",
  "6075": " phenomenon",
  "6076": " pict",
  "6077": " mrs",
  "6078": " kind",
  "6079": " isoform",
  "6080": " cos",
  "6081": "raph",
  "6082": "att",
  "6083": " vul",
  "6084": " promoting",
  "6085": " positively",
  "6086": " peaks",
  "6087": " eosinophil",
  "6088": " text",
  "6089": " gall",
  "6090": " follic",
  "6091": "0000",
  "6092": " visible",
  "6093": " acceler",
  "6094": "ulum",
  "6095": "gar",
  "6096": " improvements",
  "6097": " 128",
  "6098": "itudes",
  "6099": " 84",
  "6100": "era",
  "6101": " inserted",
  "6102": " gingival",
  "6103": " bottom",
  "6104": " networks",
  "6105": " claim",
  "6106": " 76",
  "6107": "ocular",
  "6108": "agulation",
  "6109": "ocarcinoma",
  "6110": " worldwide",
  "6111": " stir",
  "6112": " implantation",
  "6113": " annual",
  "6114": "ush",
  "6115": "cephal",
  "6116": " retention",
  "6117": " atrophy",
  "6118": "ucid",
  "6119": "ellar",
  "6120": " valve",
  "6121": " overexpression",
  "6122": " nf-b",
  "6123": "ocytic",
  "6124": " inhibited",
  "6125": " attack",
  "6126": "ulative",
  "6127": "odon",
  "6128": " volt",
  "6129": "itin",
  "6130": " stimulus",
  "6131": " peritoneal",
  "6132": " ophthal",
  "6133": " adherence",
  "6134": " surgeon",
  "6135": " absent",
  "6136": "ibrium",
  "6137": " atherosclerosis",
  "6138": " filled",
  "6139": " chromatography",
  "6140": "ury",
  "6141": "otes",
  "6142": " track",
  "6143": " thems",
  "6144": " akt",
  "6145": "atter",
  "6146": " dermat",
  "6147": "iment",
  "6148": " themselves",
  "6149": " stain",
  "6150": " nuclei",
  "6151": " perme",
  "6152": " lam",
  "6153": " feas",
  "6154": "olysis",
  "6155": " shaped",
  "6156": " controlling",
  "6157": " assessing",
  "6158": " vide",
  "6159": " recruitment",
  "6160": " presum",
  "6161": " caries",
  "6162": " superf",
  "6163": " explanation",
  "6164": " subgroups",
  "6165": " promising",
  "6166": " maxillary",
  "6167": " feel",
  "6168": " neither",
  "6169": " laboratories",
  "6170": " config",
  "6171": " incom",
  "6172": " 125",
  "6173": "oon",
  "6174": " exclus",
  "6175": " advantages",
  "6176": " caspase",
  "6177": " bcl",
  "6178": "pecific",
  "6179": "ml",
  "6180": " catar",
  "6181": " college",
  "6182": " ank",
  "6183": "}$$",
  "6184": "haps",
  "6185": " package",
  "6186": " horizontal",
  "6187": " consideration",
  "6188": " threat",
  "6189": " proven",
  "6190": " refract",
  "6191": " perfusion",
  "6192": " amyloid",
  "6193": "ril",
  "6194": " trache",
  "6195": " headache",
  "6196": " separately",
  "6197": "ubation",
  "6198": "insic",
  "6199": " perhaps",
  "6200": " deposition",
  "6201": " heterogeneous",
  "6202": " amplification",
  "6203": "bra",
  "6204": " excessive",
  "6205": "ilities",
  "6206": " var",
  "6207": " phosphat",
  "6208": " abdomen",
  "6209": "inson",
  "6210": "91",
  "6211": " socioeconomic",
  "6212": "92",
  "6213": "oor",
  "6214": " tax",
  "6215": " rehabilitation",
  "6216": " simultaneously",
  "6217": " favorable",
  "6218": " easy",
  "6219": " 83",
  "6220": " 110",
  "6221": " restor",
  "6222": " create",
  "6223": "rophic",
  "6224": "anine",
  "6225": " suppression",
  "6226": " discovery",
  "6227": " atoms",
  "6228": " bypass",
  "6229": "ze",
  "6230": "81",
  "6231": " pathogens",
  "6232": " libr",
  "6233": " fourth",
  "6234": " attenu",
  "6235": " article",
  "6236": "plete",
  "6237": " 97",
  "6238": "ocort",
  "6239": " hbv",
  "6240": " etiology",
  "6241": " 86",
  "6242": "mc",
  "6243": " opening",
  "6244": "ples",
  "6245": " df",
  "6246": " concerns",
  "6247": " minute",
  "6248": " demonstrates",
  "6249": " compli",
  "6250": " amplitude",
  "6251": " parent",
  "6252": " oppos",
  "6253": " jun",
  "6254": " dp",
  "6255": " aa",
  "6256": "ota",
  "6257": " nitrogen",
  "6258": "ged",
  "6259": " preced",
  "6260": " scaff",
  "6261": " clinicians",
  "6262": " _",
  "6263": " bab",
  "6264": "unte",
  "6265": "ruct",
  "6266": " relie",
  "6267": " paired",
  "6268": " comparative",
  "6269": " contributed",
  "6270": " apoptotic",
  "6271": "mod",
  "6272": " ubiqu",
  "6273": " ham",
  "6274": " pil",
  "6275": " acting",
  "6276": " symmet",
  "6277": " sterile",
  "6278": " ranges",
  "6279": " presents",
  "6280": "rec",
  "6281": " fish",
  "6282": " aimed",
  "6283": " adhesive",
  "6284": " va",
  "6285": " subs",
  "6286": " 81",
  "6287": "regular",
  "6288": " oxide",
  "6289": "ming",
  "6290": " uniform",
  "6291": "izumab",
  "6292": " serve",
  "6293": " mucosal",
  "6294": "}}",
  "6295": "angl",
  "6296": " pancreas",
  "6297": " item",
  "6298": " homeostasis",
  "6299": "urated",
  "6300": "oac",
  "6301": "ipolar",
  "6302": " seek",
  "6303": " fine",
  "6304": " finger",
  "6305": " categorized",
  "6306": " cn",
  "6307": " volunte",
  "6308": " pathogen",
  "6309": " orientation",
  "6310": " protect",
  "6311": " sent",
  "6312": " offer",
  "6313": " elucid",
  "6314": " bov",
  "6315": " lamin",
  "6316": " introduction",
  "6317": "pler",
  "6318": " scanning",
  "6319": " db",
  "6320": " cg",
  "6321": " loading",
  "6322": "factory",
  "6323": " untreated",
  "6324": " land",
  "6325": " ecg",
  "6326": " providers",
  "6327": "amous",
  "6328": " forming",
  "6329": " edta",
  "6330": " termin",
  "6331": " manifestations",
  "6332": " brid",
  "6333": "ulatory",
  "6334": " glyce",
  "6335": " enamel",
  "6336": " emission",
  "6337": " sud",
  "6338": " possess",
  "6339": "chymal",
  "6340": " ureter",
  "6341": " synthetic",
  "6342": " sv",
  "6343": " pigment",
  "6344": " irregular",
  "6345": " investigators",
  "6346": "henyl",
  "6347": "abilities",
  "6348": " platform",
  "6349": " cns",
  "6350": " arrows",
  "6351": " antip",
  "6352": " ventilation",
  "6353": " effectively",
  "6354": "lux",
  "6355": "han",
  "6356": " hoc",
  "6357": " cool",
  "6358": " austral",
  "6359": " classes",
  "6360": "ude",
  "6361": "reatment",
  "6362": " nodules",
  "6363": " 82",
  "6364": " tele",
  "6365": " nutritional",
  "6366": " maintaining",
  "6367": " cataract",
  "6368": "inese",
  "6369": " withdraw",
  "6370": " underg",
  "6371": " surpr",
  "6372": " prominent",
  "6373": "geal",
  "6374": " margin",
  "6375": " technical",
  "6376": " member",
  "6377": " 1997",
  "6378": " synthesized",
  "6379": " feedback",
  "6380": " crystal",
  "6381": " aid",
  "6382": " surgeons",
  "6383": " fab",
  "6384": " difficulties",
  "6385": " cac",
  "6386": " bc",
  "6387": "icients",
  "6388": "hc",
  "6389": ".2",
  "6390": " encoding",
  "6391": " drainage",
  "6392": "dehy",
  "6393": "aceut",
  "6394": " words",
  "6395": " wors",
  "6396": " twent",
  "6397": " quick",
  "6398": " government",
  "6399": " colorectal",
  "6400": " chinese",
  "6401": " tris",
  "6402": " contract",
  "6403": " 88",
  "6404": "term",
  "6405": "orage",
  "6406": "ends",
  "6407": " film",
  "6408": "lands",
  "6409": "ners",
  "6410": "imately",
  "6411": " micros",
  "6412": " fold",
  "6413": " behaviour",
  "6414": " embed",
  "6415": " implemented",
  "6416": "yc",
  "6417": " topical",
  "6418": " nad",
  "6419": " hsp",
  "6420": " coefficients",
  "6421": " nutri",
  "6422": " seal",
  "6423": " implementation",
  "6424": " 92",
  "6425": "%)",
  "6426": " understood",
  "6427": " supernat",
  "6428": " dependence",
  "6429": " indices",
  "6430": " implants",
  "6431": " intraoperative",
  "6432": " pad",
  "6433": " ln",
  "6434": "avy",
  "6435": " homogene",
  "6436": " bmd",
  "6437": "dehyde",
  "6438": " law",
  "6439": " bile",
  "6440": "ductive",
  "6441": " believed",
  "6442": " summarized",
  "6443": " dispers",
  "6444": "ras",
  "6445": " sf",
  "6446": " preferred",
  "6447": " electronic",
  "6448": " infant",
  "6449": " ie",
  "6450": " fistula",
  "6451": " dcs",
  "6452": " cysts",
  "6453": " classical",
  "6454": "vit",
  "6455": "uncture",
  "6456": "ux",
  "6457": "ques",
  "6458": " subjective",
  "6459": " existence",
  "6460": "going",
  "6461": "ensities",
  "6462": " gal",
  "6463": " eq",
  "6464": " brach",
  "6465": "chol",
  "6466": " mer",
  "6467": " gray",
  "6468": " jud",
  "6469": " decades",
  "6470": " attached",
  "6471": " acetyl",
  "6472": "rous",
  "6473": " market",
  "6474": " ltd",
  "6475": "mer",
  "6476": "abs",
  "6477": " intracranial",
  "6478": " formula",
  "6479": " activate",
  "6480": " blocks",
  "6481": "cription",
  "6482": " situations",
  "6483": "otin",
  "6484": " tear",
  "6485": " manual",
  "6486": " biology",
  "6487": " 140",
  "6488": " thal",
  "6489": " degrees",
  "6490": " blot",
  "6491": " besides",
  "6492": " permanent",
  "6493": " downstream",
  "6494": "hemat",
  "6495": " incomplete",
  "6496": "ught",
  "6497": " remark",
  "6498": " outer",
  "6499": " comprom",
  "6500": "oplastic",
  "6501": "hern",
  "6502": " rotation",
  "6503": " mediast",
  "6504": " acetate",
  "6505": " eligible",
  "6506": "oplasty",
  "6507": "gt",
  "6508": "amination",
  "6509": " pathogenic",
  "6510": " collab",
  "6511": "rocytes",
  "6512": " polymorphisms",
  "6513": " monitor",
  "6514": " december",
  "6515": "iologic",
  "6516": " smear",
  "6517": " sut",
  "6518": " rating",
  "6519": " challenges",
  "6520": " calculate",
  "6521": " representing",
  "6522": " dimin",
  "6523": " portal",
  "6524": " microgl",
  "6525": " actually",
  "6526": "ocon",
  "6527": "aceutical",
  "6528": " screen",
  "6529": " monocl",
  "6530": " 600",
  "6531": " contro",
  "6532": "urally",
  "6533": " osteop",
  "6534": "ilization",
  "6535": " pathophys",
  "6536": "oi",
  "6537": "illation",
  "6538": " engine",
  "6539": "ibration",
  "6540": " pulp",
  "6541": " microbial",
  "6542": " seizures",
  "6543": " integrated",
  "6544": "opaus",
  "6545": " gut",
  "6546": " uses",
  "6547": "usions",
  "6548": " cytoplasm",
  "6549": " hyperg",
  "6550": " explore",
  "6551": " connected",
  "6552": "hydrox",
  "6553": " locations",
  "6554": " abuse",
  "6555": "yroidism",
  "6556": "opausal",
  "6557": " heterogeneity",
  "6558": " fgf",
  "6559": " cig",
  "6560": " adding",
  "6561": "odontic",
  "6562": "aving",
  "6563": " generalized",
  "6564": "elt",
  "6565": " thi",
  "6566": " mb",
  "6567": " ht",
  "6568": " alleles",
  "6569": "ione",
  "6570": " integration",
  "6571": "king",
  "6572": "itor",
  "6573": "aryngeal",
  "6574": " parasite",
  "6575": " immunosupp",
  "6576": " ideal",
  "6577": " coronal",
  "6578": " arthritis",
  "6579": "vents",
  "6580": "olin",
  "6581": " particle",
  "6582": " discussion",
  "6583": " tyros",
  "6584": " incis",
  "6585": " diagnoses",
  "6586": "ococcus",
  "6587": " thermal",
  "6588": " think",
  "6589": " categorical",
  "6590": "oked",
  "6591": " job",
  "6592": " inducing",
  "6593": " ablation",
  "6594": " took",
  "6595": " tor",
  "6596": " kerat",
  "6597": " accom",
  "6598": " suicide",
  "6599": " orbital",
  "6600": " weakness",
  "6601": " cytoplasmic",
  "6602": "lysis",
  "6603": " univariate",
  "6604": " tree",
  "6605": " asymmet",
  "6606": " anaest",
  "6607": " alkal",
  "6608": "okin",
  "6609": " supports",
  "6610": " gradually",
  "6611": " expert",
  "6612": " cleavage",
  "6613": " cast",
  "6614": "omers",
  "6615": "chron",
  "6616": " sag",
  "6617": " reprodu",
  "6618": " ongoing",
  "6619": " harv",
  "6620": " spectromet",
  "6621": " exon",
  "6622": "ester",
  "6623": " indicator",
  "6624": " attract",
  "6625": " sound",
  "6626": " cann",
  "6627": "zed",
  "6628": " esophageal",
  "6629": " edge",
  "6630": " cartil",
  "6631": "lipid",
  "6632": " supplemented",
  "6633": " resus",
  "6634": " heavy",
  "6635": " dehyd",
  "6636": "4.",
  "6637": " comorbidities",
  "6638": " circumference",
  "6639": " unable",
  "6640": " puls",
  "6641": " indian",
  "6642": " atypical",
  "6643": "iap",
  "6644": " similarity",
  "6645": " policy",
  "6646": " fdg",
  "6647": " tp",
  "6648": " tap",
  "6649": " sds",
  "6650": " degeneration",
  "6651": " couns",
  "6652": "enter",
  "6653": "clinical",
  "6654": " scales",
  "6655": " bic",
  "6656": " fru",
  "6657": "ares",
  "6658": " precip",
  "6659": " centre",
  "6660": " girls",
  "6661": " dorsal",
  "6662": " pharmacological",
  "6663": " lar",
  "6664": " interpre",
  "6665": " former",
  "6666": " residents",
  "6667": " monoclonal",
  "6668": " duplic",
  "6669": " distant",
  "6670": " segments",
  "6671": " raised",
  "6672": " rule",
  "6673": " oh",
  "6674": " uncom",
  "6675": " twenty",
  "6676": " poorly",
  "6677": " grown",
  "6678": " estrogen",
  "6679": " 93",
  "6680": " cumulative",
  "6681": " voltage",
  "6682": " scen",
  "6683": " comprised",
  "6684": "ivered",
  "6685": " parad",
  "6686": " mos",
  "6687": " silic",
  "6688": " ot",
  "6689": " annot",
  "6690": " adenocarcinoma",
  "6691": "cardi",
  "6692": " organism",
  "6693": " maturation",
  "6694": "natal",
  "6695": " kcal",
  "6696": " bis",
  "6697": "otal",
  "6698": "char",
  "6699": " squamous",
  "6700": " hippocampal",
  "6701": " acuity",
  "6702": "onectin",
  "6703": "men",
  "6704": " accordingly",
  "6705": "pat",
  "6706": "acial",
  "6707": " ward",
  "6708": " ultimately",
  "6709": " publication",
  "6710": "dna",
  "6711": " ips",
  "6712": " detecting",
  "6713": "omics",
  "6714": " restriction",
  "6715": " rhyth",
  "6716": " compliance",
  "6717": " 130",
  "6718": "iasis",
  "6719": " insufficient",
  "6720": " equilibrium",
  "6721": " circulation",
  "6722": " biops",
  "6723": "olip",
  "6724": "can",
  "6725": " professionals",
  "6726": " continue",
  "6727": " codes",
  "6728": " night",
  "6729": " fractions",
  "6730": " constrain",
  "6731": " tob",
  "6732": " practition",
  "6733": " pear",
  "6734": " cong",
  "6735": " complicated",
  "6736": " bodies",
  "6737": "otrans",
  "6738": "edic",
  "6739": " thrombosis",
  "6740": " delivered",
  "6741": "erences",
  "6742": "ohy",
  "6743": "for",
  "6744": " obl",
  "6745": " chor",
  "6746": " 1995",
  "6747": " sun",
  "6748": " stom",
  "6749": " hcl",
  "6750": " ace",
  "6751": " substance",
  "6752": " processed",
  "6753": " insurance",
  "6754": " gli",
  "6755": " dram",
  "6756": " calculation",
  "6757": "ochemistry",
  "6758": "atible",
  "6759": "assium",
  "6760": " sen",
  "6761": " ket",
  "6762": " artific",
  "6763": " apart",
  "6764": "table",
  "6765": "poses",
  "6766": "activity",
  "6767": " mammalian",
  "6768": " injections",
  "6769": " acad",
  "6770": " storage",
  "6771": " por",
  "6772": " histopathological",
  "6773": " rf",
  "6774": " fluorescent",
  "6775": " alveolar",
  "6776": " wil",
  "6777": " transgenic",
  "6778": " tempor",
  "6779": " tight",
  "6780": " nl",
  "6781": " description",
  "6782": "ij",
  "6783": " irradiation",
  "6784": " closure",
  "6785": " acceptable",
  "6786": " requirements",
  "6787": " deterior",
  "6788": " agar",
  "6789": " supply",
  "6790": " flat",
  "6791": "ometh",
  "6792": " trunk",
  "6793": " radiological",
  "6794": " corp",
  "6795": "ago",
  "6796": " pharmaceutical",
  "6797": "org",
  "6798": "ements",
  "6799": " abundant",
  "6800": " waist",
  "6801": " stomach",
  "6802": " potassium",
  "6803": " driven",
  "6804": " surprising",
  "6805": " van",
  "6806": " foreign",
  "6807": "idin",
  "6808": " scored",
  "6809": " neurode",
  "6810": " diversity",
  "6811": " 87",
  "6812": " conclus",
  "6813": "orad",
  "6814": " phases",
  "6815": " lipids",
  "6816": " interfer",
  "6817": " dissolved",
  "6818": " sple",
  "6819": " exists",
  "6820": " ways",
  "6821": " adiponectin",
  "6822": " actions",
  "6823": "rile",
  "6824": "oxacin",
  "6825": " relaxation",
  "6826": "uled",
  "6827": "imus",
  "6828": " volumes",
  "6829": " veh",
  "6830": " rheum",
  "6831": " microbi",
  "6832": " macular",
  "6833": " igf",
  "6834": " experiences",
  "6835": " abscess",
  "6836": " lp",
  "6837": " downreg",
  "6838": " coated",
  "6839": "iators",
  "6840": "flow",
  "6841": "artments",
  "6842": " ny",
  "6843": "fig",
  "6844": " swed",
  "6845": " purchased",
  "6846": " household",
  "6847": "iii",
  "6848": " steroid",
  "6849": " enhancing",
  "6850": " dimension",
  "6851": " multic",
  "6852": " minimize",
  "6853": " dense",
  "6854": " assembly",
  "6855": "methyl",
  "6856": " stret",
  "6857": " remod",
  "6858": " nig",
  "6859": " uc",
  "6860": " regeneration",
  "6861": " dogs",
  "6862": " diarr",
  "6863": "ittal",
  "6864": "aret",
  "6865": " hypothesized",
  "6866": " flexion",
  "6867": " proportional",
  "6868": " electrode",
  "6869": "gs",
  "6870": " resolved",
  "6871": "estic",
  "6872": " multif",
  "6873": " indication",
  "6874": " genotypes",
  "6875": " candidate",
  "6876": " fungal",
  "6877": " criterion",
  "6878": " bearing",
  "6879": " addressed",
  "6880": " reading",
  "6881": " probes",
  "6882": "peritoneal",
  "6883": " differentiate",
  "6884": " completion",
  "6885": " 1996",
  "6886": " validation",
  "6887": " fert",
  "6888": "unately",
  "6889": " cutoff",
  "6890": "ctomy",
  "6891": " radiographic",
  "6892": " peroxid",
  "6893": " negatively",
  "6894": " modalities",
  "6895": " correlate",
  "6896": " born",
  "6897": " applying",
  "6898": "amental",
  "6899": " whit",
  "6900": " drawn",
  "6901": " desired",
  "6902": "opos",
  "6903": " worse",
  "6904": " methylation",
  "6905": " masses",
  "6906": " jour",
  "6907": " angiogenesis",
  "6908": " speech",
  "6909": " ice",
  "6910": " tubes",
  "6911": " lacking",
  "6912": " stead",
  "6913": " slides",
  "6914": " dmso",
  "6915": "vac",
  "6916": " opposite",
  "6917": " bands",
  "6918": " relapse",
  "6919": " proved",
  "6920": " conflic",
  "6921": " guided",
  "6922": " examples",
  "6923": "ozygous",
  "6924": "break",
  "6925": "hex",
  "6926": " multip",
  "6927": " chart",
  "6928": " centrifuged",
  "6929": " web",
  "6930": " vom",
  "6931": " repet",
  "6932": " rabbit",
  "6933": " ethyl",
  "6934": "atch",
  "6935": "adequ",
  "6936": " prelim",
  "6937": " facilities",
  "6938": "aden",
  "6939": " veget",
  "6940": " seizure",
  "6941": " prompt",
  "6942": " distributions",
  "6943": " 89",
  "6944": " share",
  "6945": " morphological",
  "6946": " prescription",
  "6947": " indicators",
  "6948": "psin",
  "6949": " assessments",
  "6950": " phag",
  "6951": " duoden",
  "6952": " excit",
  "6953": "roz",
  "6954": " autom",
  "6955": " treg",
  "6956": " gross",
  "6957": " facility",
  "6958": " suggestive",
  "6959": " displacement",
  "6960": " cutaneous",
  "6961": "acco",
  "6962": " hygi",
  "6963": "plc",
  "6964": " financ",
  "6965": " overc",
  "6966": " listed",
  "6967": " hippocampus",
  "6968": " representation",
  "6969": "agul",
  "6970": " monocytes",
  "6971": " mind",
  "6972": "sec",
  "6973": "iced",
  "6974": " wire",
  "6975": " sudden",
  "6976": " rectal",
  "6977": " nacl",
  "6978": "ivated",
  "6979": " biof",
  "6980": " aber",
  "6981": "uscular",
  "6982": "ols",
  "6983": " reproductive",
  "6984": " dex",
  "6985": " bovine",
  "6986": "ana",
  "6987": " supplementation",
  "6988": " transcripts",
  "6989": " transpor",
  "6990": " discharged",
  "6991": "pept",
  "6992": "ardia",
  "6993": " theoretical",
  "6994": " microscopic",
  "6995": " inadequ",
  "6996": " epidemiological",
  "6997": "anese",
  "6998": " chemok",
  "6999": " pooled",
  "7000": " branch",
  "7001": "actic",
  "7002": "5 mg",
  "7003": " sel",
  "7004": " newbor",
  "7005": " chloride",
  "7006": "ucas",
  "7007": " stratified",
  "7008": " rb",
  "7009": " fibroblasts",
  "7010": " tendency",
  "7011": " scenari",
  "7012": " recall",
  "7013": " questionnaires",
  "7014": " ls",
  "7015": " estimation",
  "7016": " descriptive",
  "7017": " kr",
  "7018": "osterone",
  "7019": "oa",
  "7020": " clon",
  "7021": " adaptation",
  "7022": ")=",
  "7023": " obstruct",
  "7024": " esophag",
  "7025": " discovered",
  "7026": "ionally",
  "7027": ".1",
  "7028": " giving",
  "7029": " methanol",
  "7030": " disap",
  "7031": " ckd",
  "7032": " brown",
  "7033": "uitary",
  "7034": " radiographs",
  "7035": " predis",
  "7036": " moment",
  "7037": " followup",
  "7038": " frame",
  "7039": " dip",
  "7040": "anth",
  "7041": "aken",
  "7042": " intrinsic",
  "7043": " glutam",
  "7044": " electrical",
  "7045": " stra",
  "7046": "uge",
  "7047": "onate",
  "7048": "omatous",
  "7049": "ifi",
  "7050": " cure",
  "7051": "nd",
  "7052": "ah",
  "7053": " vascul",
  "7054": " tobacco",
  "7055": " temperatures",
  "7056": " cigaret",
  "7057": "omycin",
  "7058": " secret",
  "7059": " observe",
  "7060": " mood",
  "7061": " embedded",
  "7062": "0.01",
  "7063": " pituitary",
  "7064": " explored",
  "7065": " dilution",
  "7066": " chains",
  "7067": " sg",
  "7068": " precursor",
  "7069": " ft",
  "7070": " contributes",
  "7071": " accurately",
  "7072": "iar",
  "7073": "ember",
  "7074": " outbreak",
  "7075": " hot",
  "7076": " carefully",
  "7077": "vs",
  "7078": " timing",
  "7079": " managed",
  "7080": " glycemic",
  "7081": " tyrosine",
  "7082": " beam",
  "7083": " \n\n",
  "7084": " disl",
  "7085": " rupture",
  "7086": "n1",
  "7087": " metabolites",
  "7088": " formulation",
  "7089": " conformation",
  "7090": "nm",
  "7091": " perspective",
  "7092": " modulation",
  "7093": " integrity",
  "7094": " adaptive",
  "7095": " preliminary",
  "7096": " exercises",
  "7097": " energies",
  "7098": " discrep",
  "7099": " decade",
  "7100": " careg",
  "7101": " biliary",
  "7102": "rade",
  "7103": "ka",
  "7104": "drich",
  "7105": " viability",
  "7106": " reflects",
  "7107": " bonding",
  "7108": " inhibits",
  "7109": " teaching",
  "7110": " principle",
  "7111": " mitochondria",
  "7112": " donors",
  "7113": " attachment",
  "7114": " template",
  "7115": " limiting",
  "7116": " fet",
  "7117": " biopsies",
  "7118": " lowering",
  "7119": " hypoglycemia",
  "7120": " hepar",
  "7121": " gamm",
  "7122": " complexity",
  "7123": "iac",
  "7124": " gaba",
  "7125": " eeg",
  "7126": " dye",
  "7127": " acts",
  "7128": " coordin",
  "7129": " exceed",
  "7130": " contributing",
  "7131": " spleen",
  "7132": " rac",
  "7133": " detectable",
  "7134": " databases",
  "7135": "ll",
  "7136": "iling",
  "7137": " occupational",
  "7138": " provin",
  "7139": " filling",
  "7140": " else",
  "7141": " bol",
  "7142": " markedly",
  "7143": " constructed",
  "7144": " artificial",
  "7145": " unst",
  "7146": " neonatal",
  "7147": " 1990",
  "7148": "icking",
  "7149": " fitness",
  "7150": " amplified",
  "7151": " exec",
  "7152": " unlikely",
  "7153": " pearson",
  "7154": " mutants",
  "7155": " increasingly",
  "7156": " doub",
  "7157": " bipolar",
  "7158": " west",
  "7159": " sta",
  "7160": "zer",
  "7161": " vertebral",
  "7162": " valu",
  "7163": "steine",
  "7164": " fluct",
  "7165": " capsule",
  "7166": " cow",
  "7167": " cdna",
  "7168": "mann",
  "7169": "itory",
  "7170": " tens",
  "7171": " sagittal",
  "7172": " mineral",
  "7173": " journal",
  "7174": " distress",
  "7175": " consistently",
  "7176": " assisted",
  "7177": "ynt",
  "7178": " restoration",
  "7179": " disruption",
  "7180": " cartilage",
  "7181": "rost",
  "7182": "cycl",
  "7183": " registry",
  "7184": " plasticity",
  "7185": " ligament",
  "7186": " instability",
  "7187": " financial",
  "7188": " caucas",
  "7189": "o2",
  "7190": " practical",
  "7191": " hous",
  "7192": " elic",
  "7193": "ounted",
  "7194": "ife",
  "7195": " mast",
  "7196": " immob",
  "7197": " aspiration",
  "7198": "stein",
  "7199": " ultra",
  "7200": " tre",
  "7201": " sas",
  "7202": " premature",
  "7203": " metall",
  "7204": " empir",
  "7205": " aldrich",
  "7206": "ulating",
  "7207": " substantially",
  "7208": " predicting",
  "7209": " capture",
  "7210": "www",
  "7211": "ilized",
  "7212": " replaced",
  "7213": " plaques",
  "7214": " contamination",
  "7215": "ontrol",
  "7216": "apses",
  "7217": " hund",
  "7218": " file",
  "7219": "lipidemia",
  "7220": "aling",
  "7221": " raw",
  "7222": " pix",
  "7223": " buccal",
  "7224": " ago",
  "7225": "ilic",
  "7226": "ging",
  "7227": " cough",
  "7228": " 180",
  "7229": " sph",
  "7230": "ureus",
  "7231": " proton",
  "7232": " away",
  "7233": "astom",
  "7234": " tertiary",
  "7235": " inoc",
  "7236": " happ",
  "7237": " hplc",
  "7238": " antico",
  "7239": "rated",
  "7240": "cluding",
  "7241": " hundred",
  "7242": " greatest",
  "7243": " unp",
  "7244": " subunit",
  "7245": " neutrophils",
  "7246": " communic",
  "7247": "ee",
  "7248": "cious",
  "7249": " silica",
  "7250": " sensit",
  "7251": " naf",
  "7252": " lev",
  "7253": " virt",
  "7254": " 91",
  "7255": " idea",
  "7256": " ethnic",
  "7257": " unus",
  "7258": " filtered",
  "7259": " dosage",
  "7260": " combinations",
  "7261": " trop",
  "7262": " purposes",
  "7263": " ankle",
  "7264": "rotic",
  "7265": "enta",
  "7266": "after",
  "7267": " 111",
  "7268": " shoulder",
  "7269": " quart",
  "7270": " intest",
  "7271": " fev",
  "7272": " extending",
  "7273": " excre",
  "7274": " branc",
  "7275": " remov",
  "7276": " cond",
  "7277": "idity",
  "7278": " pron",
  "7279": " implications",
  "7280": " eryt",
  "7281": " aorta",
  "7282": " africa",
  "7283": "osine",
  "7284": "head",
  "7285": " sirna",
  "7286": " immunohistochemical",
  "7287": "actin",
  "7288": " utilization",
  "7289": " transfusion",
  "7290": " radio",
  "7291": " dosing",
  "7292": " brom",
  "7293": "otropic",
  "7294": " trap",
  "7295": " notably",
  "7296": " snp",
  "7297": " sbp",
  "7298": " pall",
  "7299": " episode",
  "7300": " epilepsy",
  "7301": " communities",
  "7302": " changing",
  "7303": " asian",
  "7304": "omorph",
  "7305": " unfort",
  "7306": " shar",
  "7307": "**",
  "7308": " traff",
  "7309": " route",
  "7310": " resting",
  "7311": " postoperatively",
  "7312": " cirrh",
  "7313": " decomp",
  "7314": " aureus",
  "7315": " traumatic",
  "7316": " mf",
  "7317": " ile",
  "7318": " osteopor",
  "7319": " magnification",
  "7320": "carb",
  "7321": " mtor",
  "7322": " vitre",
  "7323": " mediators",
  "7324": " concentrated",
  "7325": "ferase",
  "7326": " trends",
  "7327": " subtypes",
  "7328": " retina",
  "7329": " pleural",
  "7330": " harm",
  "7331": " gestational",
  "7332": " entered",
  "7333": " weighted",
  "7334": " stere",
  "7335": " simply",
  "7336": " fundamental",
  "7337": " binds",
  "7338": " contents",
  "7339": " amin",
  "7340": "rich",
  "7341": "miss",
  "7342": "itum",
  "7343": " multid",
  "7344": " influences",
  "7345": "ura",
  "7346": " standing",
  "7347": " mesen",
  "7348": " catalytic",
  "7349": " vomiting",
  "7350": " ureth",
  "7351": " ras",
  "7352": " barriers",
  "7353": "gal",
  "7354": " resource",
  "7355": "oll",
  "7356": " tro",
  "7357": " pump",
  "7358": " null",
  "7359": " loaded",
  "7360": " diarrhea",
  "7361": "prot",
  "7362": " marginal",
  "7363": " eventually",
  "7364": " trigger",
  "7365": " pathologic",
  "7366": " boys",
  "7367": " arise",
  "7368": " advance",
  "7369": "luores",
  "7370": " tong",
  "7371": " picture",
  "7372": " modality",
  "7373": " gamma",
  "7374": " canada",
  "7375": " bud",
  "7376": "rectomy",
  "7377": " quantified",
  "7378": " forces",
  "7379": " capillary",
  "7380": "oderm",
  "7381": " whitney",
  "7382": " parasites",
  "7383": "arietal",
  "7384": " substances",
  "7385": " pyl",
  "7386": " mobility",
  "7387": " gangl",
  "7388": " travel",
  "7389": " thorough",
  "7390": "plan",
  "7391": " fear",
  "7392": " enab",
  "7393": " converted",
  "7394": " conduction",
  "7395": " beh",
  "7396": " analysed",
  "7397": " volunteers",
  "7398": " ultrasonography",
  "7399": " takes",
  "7400": " malignancies",
  "7401": " je",
  "7402": "ito",
  "7403": " pu",
  "7404": " microt",
  "7405": "pread",
  "7406": " wides",
  "7407": " usage",
  "7408": " gait",
  "7409": " widespread",
  "7410": " vulner",
  "7411": " video",
  "7412": " percutaneous",
  "7413": " dissoci",
  "7414": " wat",
  "7415": " pore",
  "7416": " ethnicity",
  "7417": " conformational",
  "7418": "ovirus",
  "7419": "heses",
  "7420": "^{",
  "7421": " innate",
  "7422": "ophosph",
  "7423": " regulating",
  "7424": " prone",
  "7425": " modeling",
  "7426": " ars",
  "7427": " arrest",
  "7428": "teen",
  "7429": " split",
  "7430": " spectral",
  "7431": " percentages",
  "7432": "hour",
  "7433": "ocket",
  "7434": "chlor",
  "7435": " promotes",
  "7436": " obst",
  "7437": " faster",
  "7438": " bac",
  "7439": "pin",
  "7440": " undergone",
  "7441": " stronger",
  "7442": " shared",
  "7443": " interviews",
  "7444": " fda",
  "7445": " conjugated",
  "7446": " yielded",
  "7447": " readily",
  "7448": " requirement",
  "7449": " plastic",
  "7450": "velength",
  "7451": " nr",
  "7452": " hygiene",
  "7453": " genomes",
  "7454": " gives",
  "7455": " echo",
  "7456": "rel",
  "7457": "hi",
  "7458": " glp",
  "7459": " deliver",
  "7460": " bonds",
  "7461": "mitt",
  "7462": " uterine",
  "7463": " nurse",
  "7464": " habit",
  "7465": " excitation",
  "7466": "cade",
  "7467": " rn",
  "7468": "otor",
  "7469": "aker",
  "7470": " fair",
  "7471": " blocking",
  "7472": "pert",
  "7473": " usual",
  "7474": " tension",
  "7475": " remission",
  "7476": " reinf",
  "7477": " japanese",
  "7478": " front",
  "7479": " stimulate",
  "7480": " quantification",
  "7481": " instruct",
  "7482": " ger",
  "7483": " flav",
  "7484": " anomal",
  "7485": "otides",
  "7486": "cyst",
  "7487": " tau",
  "7488": " peric",
  "7489": " inhal",
  "7490": " hole",
  "7491": " genotyp",
  "7492": " dysp",
  "7493": " anthrop",
  "7494": "ocomp",
  "7495": " sox",
  "7496": " ram",
  "7497": " equiv",
  "7498": " contamin",
  "7499": " swe",
  "7500": " obtaining",
  "7501": " exclude",
  "7502": " atm",
  "7503": "urity",
  "7504": "opathic",
  "7505": "ohydr",
  "7506": "antib",
  "7507": " transverse",
  "7508": " traject",
  "7509": " superficial",
  "7510": " registered",
  "7511": " powder",
  "7512": " phenotypes",
  "7513": " pyr",
  "7514": " pup",
  "7515": " page",
  "7516": " decisions",
  "7517": " wet",
  "7518": " serial",
  "7519": " lumen",
  "7520": " lm",
  "7521": " definitive",
  "7522": " 126",
  "7523": "riched",
  "7524": " unfortunately",
  "7525": "002",
  "7526": " staging",
  "7527": " examining",
  "7528": " ber",
  "7529": " abundance",
  "7530": " irrig",
  "7531": " hypertensive",
  "7532": " arms",
  "7533": " antagonist",
  "7534": " unf",
  "7535": " stiff",
  "7536": " hypoxia",
  "7537": " come",
  "7538": " adjusting",
  "7539": "ws",
  "7540": " plasmid",
  "7541": " nos",
  "7542": " abst",
  "7543": "reed",
  "7544": "ayer",
  "7545": " planned",
  "7546": " wavelength",
  "7547": " sensor",
  "7548": " exception",
  "7549": " blocked",
  "7550": "ubin",
  "7551": "sem",
  "7552": " valuable",
  "7553": " tam",
  "7554": " screened",
  "7555": " reasonable",
  "7556": " palp",
  "7557": " italy",
  "7558": " encephal",
  "7559": " challenging",
  "7560": " arising",
  "7561": " allerg",
  "7562": "ker",
  "7563": "atum",
  "7564": " sole",
  "7565": " slices",
  "7566": " microorgan",
  "7567": " concurrent",
  "7568": " interstit",
  "7569": " chic",
  "7570": " restorations",
  "7571": " invit",
  "7572": " circu",
  "7573": " equipment",
  "7574": " corpor",
  "7575": "etically",
  "7576": " utility",
  "7577": " partners",
  "7578": " mobile",
  "7579": " keratin",
  "7580": " hapl",
  "7581": " cytotoxic",
  "7582": " began",
  "7583": "opia",
  "7584": " surviv",
  "7585": " salivary",
  "7586": " windows",
  "7587": " demand",
  "7588": " computational",
  "7589": " catalyst",
  "7590": ".9",
  "7591": " synerg",
  "7592": " disappe",
  "7593": " chromatin",
  "7594": "cible",
  "7595": " das",
  "7596": "openia",
  "7597": "adj",
  "7598": " suffering",
  "7599": " ki",
  "7600": " suspension",
  "7601": " specified",
  "7602": "mental",
  "7603": " tf",
  "7604": " tetra",
  "7605": " sap",
  "7606": " overcome",
  "7607": " inhibiting",
  "7608": " washing",
  "7609": " said",
  "7610": " precision",
  "7611": " au",
  "7612": " unilateral",
  "7613": "requ",
  "7614": "iae",
  "7615": "aking",
  "7616": " zn",
  "7617": " sided",
  "7618": " facult",
  "7619": " derivatives",
  "7620": " vesicles",
  "7621": " putative",
  "7622": " gfp",
  "7623": " strept",
  "7624": " characterization",
  "7625": "itol",
  "7626": " intram",
  "7627": " big",
  "7628": " analytical",
  "7629": "ograms",
  "7630": "leuk",
  "7631": "icin",
  "7632": " son",
  "7633": " kb",
  "7634": " anch",
  "7635": " participating",
  "7636": " embryonic",
  "7637": " crude",
  "7638": "heres",
  "7639": " stimulating",
  "7640": " relevance",
  "7641": " pin",
  "7642": " pie",
  "7643": "iva",
  "7644": " hyperglycemia",
  "7645": " observational",
  "7646": " locus",
  "7647": " invitrogen",
  "7648": " helpful",
  "7649": " compartment",
  "7650": " adsorption",
  "7651": "ystems",
  "7652": "eries",
  "7653": " cultural",
  "7654": " contrary",
  "7655": " blast",
  "7656": " cohorts",
  "7657": " \n \n",
  "7658": "ou",
  "7659": "),",
  "7660": " polyp",
  "7661": " neurodegen",
  "7662": " distric",
  "7663": " upd",
  "7664": " periodont",
  "7665": " opin",
  "7666": " doctors",
  "7667": " ventricle",
  "7668": " sugar",
  "7669": " sul",
  "7670": " inadequate",
  "7671": " epigen",
  "7672": "avail",
  "7673": " vehicle",
  "7674": " vacuum",
  "7675": " urea",
  "7676": " quantity",
  "7677": " dox",
  "7678": "down",
  "7679": " rough",
  "7680": " mapping",
  "7681": " brack",
  "7682": "itect",
  "7683": "ervation",
  "7684": ".4",
  "7685": " regimens",
  "7686": " reagent",
  "7687": " patch",
  "7688": " enriched",
  "7689": " goals",
  "7690": " gs",
  "7691": " france",
  "7692": " chicago",
  "7693": " angles",
  "7694": "mt",
  "7695": "gc",
  "7696": " suture",
  "7697": " mandible",
  "7698": " intestine",
  "7699": " fs",
  "7700": "ham",
  "7701": " thrombo",
  "7702": " division",
  "7703": " conclude",
  "7704": "ospor",
  "7705": " triple",
  "7706": " reflected",
  "7707": " preventive",
  "7708": " clustering",
  "7709": "illa",
  "7710": " sequential",
  "7711": " neuropathy",
  "7712": " fri",
  "7713": "ounced",
  "7714": "ector",
  "7715": " unusual",
  "7716": " saturation",
  "7717": " rid",
  "7718": " poll",
  "7719": " enable",
  "7720": " consistency",
  "7721": " bsa",
  "7722": " perturb",
  "7723": " lifet",
  "7724": " korean",
  "7725": " files",
  "7726": " assumption",
  "7727": " undert",
  "7728": " configuration",
  "7729": " trp",
  "7730": " running",
  "7731": " mini",
  "7732": " knockout",
  "7733": " heparin",
  "7734": " confounding",
  "7735": " neuros",
  "7736": " extr",
  "7737": " vl",
  "7738": " span",
  "7739": " reductions",
  "7740": " perforation",
  "7741": " held",
  "7742": " apply",
  "7743": " amel",
  "7744": "olve",
  "7745": "olid",
  "7746": " tibial",
  "7747": " stock",
  "7748": " modern",
  "7749": " march",
  "7750": " enzymatic",
  "7751": "what",
  "7752": "iton",
  "7753": " visualized",
  "7754": " chemistry",
  "7755": " aggregation",
  "7756": " regarded",
  "7757": " dopamine",
  "7758": " corresponds",
  "7759": "stere",
  "7760": "oxin",
  "7761": "car",
  "7762": " viol",
  "7763": " tongue",
  "7764": " fibrin",
  "7765": " arrhyth",
  "7766": "onas",
  "7767": "izer",
  "7768": ".8",
  "7769": " transm",
  "7770": " substitution",
  "7771": " joints",
  "7772": " endocrine",
  "7773": " corticosteroids",
  "7774": " homogeneous",
  "7775": " glycos",
  "7776": " evid",
  "7777": " dataset",
  "7778": " crypt",
  "7779": " bund",
  "7780": " visualization",
  "7781": " methodology",
  "7782": " 127",
  "7783": " reaching",
  "7784": " parkinson",
  "7785": " exer",
  "7786": " equally",
  "7787": " automated",
  "7788": "array",
  "7789": " straight",
  "7790": " resident",
  "7791": " lungs",
  "7792": " waste",
  "7793": " transfected",
  "7794": " recovered",
  "7795": " murine",
  "7796": " incorporated",
  "7797": " viable",
  "7798": " steady",
  "7799": " contral",
  "7800": " anastom",
  "7801": ".3",
  "7802": " rheumat",
  "7803": " operated",
  "7804": " hydrophobic",
  "7805": " cranial",
  "7806": "ceral",
  "7807": " tag",
  "7808": " recipients",
  "7809": " chance",
  "7810": "gia",
  "7811": " clos",
  "7812": "odil",
  "7813": " subtype",
  "7814": " osc",
  "7815": " neuron",
  "7816": " greatly",
  "7817": "time",
  "7818": "oresis",
  "7819": " hystere",
  "7820": " distilled",
  "7821": "iatr",
  "7822": " supernatant",
  "7823": " produces",
  "7824": " elimination",
  "7825": " tach",
  "7826": " library",
  "7827": " intense",
  "7828": " expend",
  "7829": " echocardiography",
  "7830": " carbohydr",
  "7831": "then",
  "7832": " occlus",
  "7833": " limbs",
  "7834": " gon",
  "7835": "--",
  "7836": " shr",
  "7837": " margins",
  "7838": " attempts",
  "7839": " activating",
  "7840": " stromal",
  "7841": " coordination",
  "7842": " cil",
  "7843": " cust",
  "7844": " abort",
  "7845": "125",
  "7846": " septic",
  "7847": " remodeling",
  "7848": " clinics",
  "7849": "itic",
  "7850": "alth",
  "7851": " spind",
  "7852": " radial",
  "7853": " nond",
  "7854": " crani",
  "7855": " contacts",
  "7856": "posed",
  "7857": "oming",
  "7858": " secreted",
  "7859": " eros",
  "7860": " dh",
  "7861": " connective",
  "7862": " publications",
  "7863": " controvers",
  "7864": " contralateral",
  "7865": " candidates",
  "7866": "ned",
  "7867": " sched",
  "7868": " plots",
  "7869": " expendit",
  "7870": "angement",
  "7871": " retic",
  "7872": " bath",
  "7873": "ruction",
  "7874": "entricular",
  "7875": " traits",
  "7876": " sout",
  "7877": " improves",
  "7878": "cap",
  "7879": " triglycerides",
  "7880": " homa",
  "7881": "erve",
  "7882": "500",
  "7883": " distances",
  "7884": "mentation",
  "7885": "120",
  "7886": " kinases",
  "7887": " dich",
  "7888": " tendon",
  "7889": " iq",
  "7890": " decided",
  "7891": " dia",
  "7892": " views",
  "7893": " reactivity",
  "7894": " conscious",
  "7895": "ensin",
  "7896": " nause",
  "7897": " highlighted",
  "7898": "rozen",
  "7899": "irubin",
  "7900": " guidance",
  "7901": " gad",
  "7902": " fluoride",
  "7903": "idase",
  "7904": " mhc",
  "7905": " investigating",
  "7906": " interpreted",
  "7907": " interleuk",
  "7908": " emerging",
  "7909": " accounted",
  "7910": "affin",
  "7911": " routinely",
  "7912": " psori",
  "7913": " participated",
  "7914": " microglia",
  "7915": " hall",
  "7916": " glycop",
  "7917": " depletion",
  "7918": "stem",
  "7919": "ioid",
  "7920": " sput",
  "7921": " qi",
  "7922": " papillary",
  "7923": " obstructive",
  "7924": "rid",
  "7925": "eria",
  "7926": " owing",
  "7927": " nausea",
  "7928": " june",
  "7929": " antidepressant",
  "7930": " iranian",
  "7931": " indications",
  "7932": " felt",
  "7933": " destruction",
  "7934": " referral",
  "7935": " proportions",
  "7936": "oic",
  "7937": "cha",
  "7938": "amus",
  "7939": " lactate",
  "7940": " english",
  "7941": "allow",
  "7942": " varies",
  "7943": " sport",
  "7944": " sort",
  "7945": " opportunity",
  "7946": " lean",
  "7947": " histology",
  "7948": " doctor",
  "7949": " 129",
  "7950": "rays",
  "7951": "avi",
  "7952": " yes",
  "7953": " optimization",
  "7954": " intubation",
  "7955": " 000",
  "7956": "itated",
  "7957": "exist",
  "7958": "anta",
  "7959": "anger",
  "7960": " season",
  "7961": " mism",
  "7962": " ff",
  "7963": "vacizumab",
  "7964": "ignific",
  "7965": " giant",
  "7966": " equations",
  "7967": " rpm",
  "7968": " isolate",
  "7969": " frozen",
  "7970": "iab",
  "7971": " rpe",
  "7972": " feasible",
  "7973": "alb",
  "7974": " returned",
  "7975": " irre",
  "7976": " ecm",
  "7977": " biomarker",
  "7978": " bif",
  "7979": "olecular",
  "7980": "ico",
  "7981": " universal",
  "7982": " extensively",
  "7983": " bevacizumab",
  "7984": "anner",
  "7985": "ala",
  "7986": " reconstruct",
  "7987": " positivity",
  "7988": " morning",
  "7989": " principles",
  "7990": " labeling",
  "7991": " simulated",
  "7992": " attempted",
  "7993": " ko",
  "7994": " adopted",
  "7995": "ita",
  "7996": "omfort",
  "7997": " ti",
  "7998": " potentials",
  "7999": " phylogenetic",
  "8000": " neighb",
  "8001": " interference",
  "8002": " agreed",
  "8003": "vc",
  "8004": "ama",
  "8005": " spot",
  "8006": " retained",
  "8007": " practitioners",
  "8008": " illustrated",
  "8009": " fatal",
  "8010": " familial",
  "8011": " discomfort",
  "8012": " verified",
  "8013": " synchron",
  "8014": " offered",
  "8015": " moun",
  "8016": " cin",
  "8017": " advances",
  "8018": " accident",
  "8019": " vaccines",
  "8020": " iodine",
  "8021": " checked",
  "8022": "ressing",
  "8023": "pd",
  "8024": "astatin",
  "8025": "adian",
  "8026": " reinfor",
  "8027": " microb",
  "8028": " fetus",
  "8029": " east",
  "8030": " somewhat",
  "8031": " optimized",
  "8032": " floor",
  "8033": " attitudes",
  "8034": "hydr",
  "8035": " weights",
  "8036": " pronounced",
  "8037": " coagulation",
  "8038": " absorbance",
  "8039": ".7",
  "8040": " km",
  "8041": " elsewhere",
  "8042": "tically",
  "8043": "rav",
  "8044": " trace",
  "8045": " king",
  "8046": " yields",
  "8047": " sclerosis",
  "8048": " complaints",
  "8049": "amps",
  "8050": " subc",
  "8051": " quantum",
  "8052": "idents",
  "8053": "ials",
  "8054": " slowly",
  "8055": " inher",
  "8056": " idi",
  "8057": " foods",
  "8058": " breathing",
  "8059": "ocated",
  "8060": " vectors",
  "8061": " interstitial",
  "8062": " anne",
  "8063": " vox",
  "8064": " subm",
  "8065": " roc",
  "8066": "positive",
  "8067": "pathetic",
  "8068": "ignificant",
  "8069": " veter",
  "8070": " histone",
  "8071": " attitude",
  "8072": "vis",
  "8073": "taining",
  "8074": "oric",
  "8075": "ophila",
  "8076": "inating",
  "8077": " principal",
  "8078": " eating",
  "8079": " definite",
  "8080": "ifies",
  "8081": " visc",
  "8082": " coil",
  "8083": " averaged",
  "8084": "onit",
  "8085": "oli",
  "8086": " propag",
  "8087": " probable",
  "8088": " ophthalm",
  "8089": " umb",
  "8090": "oscopic",
  "8091": "acchar",
  "8092": " verbal",
  "8093": " spectroscopy",
  "8094": " soil",
  "8095": " muscular",
  "8096": " expanded",
  "8097": " doppler",
  "8098": " commercially",
  "8099": "rex",
  "8100": "iviral",
  "8101": " neuropath",
  "8102": " gat",
  "8103": " ammon",
  "8104": "ror",
  "8105": " pharmacokin",
  "8106": " glands",
  "8107": " agonist",
  "8108": "iro",
  "8109": " somatic",
  "8110": " nerves",
  "8111": " kda",
  "8112": "inted",
  "8113": "003",
  "8114": " upregulated",
  "8115": " tubular",
  "8116": " sides",
  "8117": " shel",
  "8118": " exogenous",
  "8119": " ath",
  "8120": "ara",
  "8121": " transformed",
  "8122": " purification",
  "8123": " dot",
  "8124": " balloon",
  "8125": "nut",
  "8126": " transduction",
  "8127": " him",
  "8128": " attenuated",
  "8129": " angiot",
  "8130": "ias",
  "8131": " scalp",
  "8132": " reveals",
  "8133": " property",
  "8134": " machine",
  "8135": " leukemia",
  "8136": " july",
  "8137": " hands",
  "8138": " elong",
  "8139": " damaged",
  "8140": " corporation",
  "8141": " predn",
  "8142": " pas",
  "8143": " parietal",
  "8144": " nort",
  "8145": " farm",
  "8146": " passive",
  "8147": " cirrhosis",
  "8148": "....",
  "8149": " pilot",
  "8150": " dimer",
  "8151": " aerobic",
  "8152": "hep",
  "8153": " surveys",
  "8154": " restrict",
  "8155": " parental",
  "8156": " lac",
  "8157": " disturbances",
  "8158": " differed",
  "8159": " buffered",
  "8160": " anticip",
  "8161": " tumours",
  "8162": " nephropathy",
  "8163": " hospitalized",
  "8164": " branches",
  "8165": "ukary",
  "8166": " malform",
  "8167": " hematoma",
  "8168": " gb",
  "8169": " electrodes",
  "8170": "uing",
  "8171": "inucle",
  "8172": "hered",
  "8173": " uncommon",
  "8174": " reflex",
  "8175": " isoforms",
  "8176": "atosis",
  "8177": " rub",
  "8178": " prophylaxis",
  "8179": " lineage",
  "8180": " conclusions",
  "8181": "ofl",
  "8182": " mrsa",
  "8183": " macrophage",
  "8184": " foram",
  "8185": " depressed",
  "8186": " australia",
  "8187": " adapted",
  "8188": "ycardia",
  "8189": " vig",
  "8190": " una",
  "8191": " determin",
  "8192": " carrying",
  "8193": " regulates",
  "8194": " rated",
  "8195": " pca",
  "8196": " correctly",
  "8197": " weekly",
  "8198": " drinking",
  "8199": " ia",
  "8200": "spring",
  "8201": " registration",
  "8202": " mask",
  "8203": " glomerular",
  "8204": " eukary",
  "8205": " considerably",
  "8206": " your",
  "8207": " syndrom",
  "8208": " pretreatment",
  "8209": " powerful",
  "8210": " kinetics",
  "8211": " kh",
  "8212": " beads",
  "8213": " hormones",
  "8214": "cape",
  "8215": ".6",
  "8216": " motivation",
  "8217": " mesenchymal",
  "8218": " cardiomy",
  "8219": "ophy",
  "8220": " protease",
  "8221": " phosphatase",
  "8222": " arom",
  "8223": "embr",
  "8224": " pelvis",
  "8225": " offspring",
  "8226": " mess",
  "8227": " lymphocyte",
  "8228": " hemisp",
  "8229": " eh",
  "8230": "ifl",
  "8231": " locally",
  "8232": " diagnost",
  "8233": "ependent",
  "8234": " skull",
  "8235": " pylori",
  "8236": " dyspnea",
  "8237": " architect",
  "8238": " academic",
  "8239": "vin",
  "8240": " wash",
  "8241": " warr",
  "8242": " survivors",
  "8243": " osteoporosis",
  "8244": " lifetime",
  "8245": "rained",
  "8246": "atinib",
  "8247": " searc",
  "8248": " homogen",
  "8249": " cro",
  "8250": " afford",
  "8251": "ying",
  "8252": "ountered",
  "8253": "odialysis",
  "8254": "illus",
  "8255": "ford",
  "8256": " subunits",
  "8257": " retrieval",
  "8258": " rational",
  "8259": " interleukin",
  "8260": " excluding",
  "8261": " encountered",
  "8262": "hydroxy",
  "8263": "class",
  "8264": " visceral",
  "8265": " steroids",
  "8266": " deficit",
  "8267": " compatible",
  "8268": " attend",
  "8269": "inol",
  "8270": "oglobulin",
  "8271": "erated",
  "8272": "eps",
  "8273": " gyr",
  "8274": " crt",
  "8275": "ki",
  "8276": " prevented",
  "8277": " carriers",
  "8278": " adhd",
  "8279": "ida",
  "8280": " wnt",
  "8281": " triggered",
  "8282": " covariates",
  "8283": " came",
  "8284": "neys",
  "8285": " xen",
  "8286": " upregulation",
  "8287": " refractory",
  "8288": " converse",
  "8289": "ifer",
  "8290": "acc",
  "8291": " spp",
  "8292": " necessarily",
  "8293": " modest",
  "8294": " chemicals",
  "8295": " 1994",
  "8296": " sitting",
  "8297": " splic",
  "8298": " recognize",
  "8299": " achieving",
  "8300": " positioned",
  "8301": " novo",
  "8302": " modulate",
  "8303": " macro",
  "8304": " cosm",
  "8305": " octo",
  "8306": " kap",
  "8307": " anatomic",
  "8308": "alling",
  "8309": "acing",
  "8310": " unexp",
  "8311": " physi",
  "8312": " plex",
  "8313": " nonc",
  "8314": " gn",
  "8315": " extremity",
  "8316": " electrophoresis",
  "8317": " applicable",
  "8318": "icul",
  "8319": " counterpart",
  "8320": " cdc",
  "8321": " biosynt",
  "8322": " answer",
  "8323": "orial",
  "8324": " permeability",
  "8325": " fluctu",
  "8326": " cornea",
  "8327": " connection",
  "8328": "plastic",
  "8329": " redox",
  "8330": " kidneys",
  "8331": " connectivity",
  "8332": " abi",
  "8333": "oxic",
  "8334": " slice",
  "8335": " saturated",
  "8336": " roche",
  "8337": " lic",
  "8338": " fulf",
  "8339": " antipsych",
  "8340": "unting",
  "8341": "ofluores",
  "8342": " tolerated",
  "8343": " papers",
  "8344": " hemodynamic",
  "8345": "oside",
  "8346": "ographical",
  "8347": " structured",
  "8348": " rearr",
  "8349": " passed",
  "8350": "h2",
  "8351": " stroma",
  "8352": " ef",
  "8353": " cert",
  "8354": " assuming",
  "8355": " tsh",
  "8356": " subsets",
  "8357": " popular",
  "8358": " falls",
  "8359": " charged",
  "8360": "onym",
  "8361": "iplinary",
  "8362": " inh",
  "8363": " unless",
  "8364": " neurot",
  "8365": " lh",
  "8366": " autoantib",
  "8367": " aspart",
  "8368": " aw",
  "8369": " format",
  "8370": " centrifugation",
  "8371": " promotion",
  "8372": " intermitt",
  "8373": " fasc",
  "8374": " deviations",
  "8375": " crown",
  "8376": " anesthet",
  "8377": " nih",
  "8378": " embryos",
  "8379": " diag",
  "8380": " cruz",
  "8381": " coping",
  "8382": " april",
  "8383": " severely",
  "8384": " kd",
  "8385": "ora",
  "8386": " sick",
  "8387": " inactive",
  "8388": " scatter",
  "8389": " neurologic",
  "8390": " nps",
  "8391": " youth",
  "8392": " orthop",
  "8393": " anter",
  "8394": "otypic",
  "8395": " gent",
  "8396": " exclusively",
  "8397": " confirmation",
  "8398": " coch",
  "8399": " america",
  "8400": "lycemic",
  "8401": "enteric",
  "8402": " september",
  "8403": " odont",
  "8404": " flexibility",
  "8405": " fc",
  "8406": " bilirubin",
  "8407": " abnormality",
  "8408": "ese",
  "8409": " bw",
  "8410": " bones",
  "8411": " 1992",
  "8412": " shear",
  "8413": " microorganisms",
  "8414": " habits",
  "8415": "ograft",
  "8416": "estive",
  "8417": "athyroid",
  "8418": "amycin",
  "8419": " thereafter",
  "8420": " stiffness",
  "8421": " relig",
  "8422": " proteinuria",
  "8423": " osm",
  "8424": " asia",
  "8425": " analyzing",
  "8426": "ocial",
  "8427": "cam",
  "8428": " preference",
  "8429": " die",
  "8430": " angiotensin",
  "8431": "lc",
  "8432": " surrog",
  "8433": " lup",
  "8434": " chond",
  "8435": " athle",
  "8436": " pocket",
  "8437": " dpp",
  "8438": "nec",
  "8439": " suppressed",
  "8440": " revision",
  "8441": " modes",
  "8442": " epigenetic",
  "8443": " conversely",
  "8444": "asone",
  "8445": " loci",
  "8446": " infra",
  "8447": " electrocardi",
  "8448": " controversial",
  "8449": " brca",
  "8450": "omeric",
  "8451": " ulcers",
  "8452": " aga",
  "8453": "kyo",
  "8454": " hit",
  "8455": " behind",
  "8456": "illi",
  "8457": " sought",
  "8458": " saliva",
  "8459": " pressures",
  "8460": " matching",
  "8461": " match",
  "8462": " histologic",
  "8463": " endothelium",
  "8464": " excretion",
  "8465": " thickening",
  "8466": " arab",
  "8467": "onuclear",
  "8468": "etric",
  "8469": "arcoma",
  "8470": "akes",
  "8471": " extend",
  "8472": " correlates",
  "8473": " camera",
  "8474": " tokyo",
  "8475": " station",
  "8476": " fash",
  "8477": " deterioration",
  "8478": " debr",
  "8479": " cyl",
  "8480": " analgesic",
  "8481": " uncertainty",
  "8482": " thirty",
  "8483": " submitted",
  "8484": " stabilization",
  "8485": " recipient",
  "8486": " prosthesis",
  "8487": " meeting",
  "8488": " conjunct",
  "8489": " biofil",
  "8490": " auditory",
  "8491": "albumin",
  "8492": " vaccin",
  "8493": " syring",
  "8494": " reviews",
  "8495": " reper",
  "8496": " nonspecific",
  "8497": " monthly",
  "8498": " explic",
  "8499": " dw",
  "8500": "ders",
  "8501": "atics",
  "8502": " unstable",
  "8503": " serot",
  "8504": " incons",
  "8505": " immers",
  "8506": " glutamate",
  "8507": " effector",
  "8508": "zhe",
  "8509": "hepatic",
  "8510": "atib",
  "8511": " studying",
  "8512": " fashion",
  "8513": " equipped",
  "8514": " carcinomas",
  "8515": " bony",
  "8516": " atl",
  "8517": "raine",
  "8518": "psych",
  "8519": " trip",
  "8520": " personnel",
  "8521": " neurom",
  "8522": " mim",
  "8523": " kinetic",
  "8524": " esc",
  "8525": " confirming",
  "8526": " burn",
  "8527": "net",
  "8528": " tin",
  "8529": " suffered",
  "8530": " enlarged",
  "8531": " ebv",
  "8532": "stand",
  "8533": "dp",
  "8534": " hypothal",
  "8535": " cmv",
  "8536": "tc",
  "8537": " xyl",
  "8538": " worsening",
  "8539": " nucleation",
  "8540": " motility",
  "8541": "utable",
  "8542": " tunnel",
  "8543": " insufficiency",
  "8544": "rogenic",
  "8545": "isolone",
  "8546": "rof",
  "8547": "ifier",
  "8548": " undertaken",
  "8549": " pak",
  "8550": " meaningful",
  "8551": " immunore",
  "8552": " glomerul",
  "8553": " flux",
  "8554": "zyme",
  "8555": "urgical",
  "8556": " sand",
  "8557": " neoplastic",
  "8558": " institutions",
  "8559": " flask",
  "8560": " hormonal",
  "8561": " fifth",
  "8562": "ilding",
  "8563": "ensis",
  "8564": "agic",
  "8565": " nonin",
  "8566": " gained",
  "8567": "jun",
  "8568": " iliac",
  "8569": " causal",
  "8570": " bh",
  "8571": "imb",
  "8572": " tof",
  "8573": " oscill",
  "8574": " integrin",
  "8575": " fu",
  "8576": " alteration",
  "8577": "idyl",
  "8578": " office",
  "8579": " massive",
  "8580": " manipulation",
  "8581": "apor",
  "8582": " vp",
  "8583": " noticed",
  "8584": " forced",
  "8585": " coordinate",
  "8586": "phrine",
  "8587": "leton",
  "8588": "ancer",
  "8589": " opac",
  "8590": " mediate",
  "8591": " lesser",
  "8592": " lasting",
  "8593": " inactivation",
  "8594": " analyzer",
  "8595": " surgeries",
  "8596": " subsc",
  "8597": " preferent",
  "8598": " meal",
  "8599": " manus",
  "8600": " leakage",
  "8601": "opes",
  "8602": "arth",
  "8603": "005",
  "8604": " tac",
  "8605": " screws",
  "8606": " meier",
  "8607": " emerged",
  "8608": " diminished",
  "8609": "zheimer",
  "8610": "ycl",
  "8611": "tration",
  "8612": "induced",
  "8613": " vertebra",
  "8614": " supplemental",
  "8615": " nafld",
  "8616": " implies",
  "8617": " comfort",
  "8618": "fusion",
  "8619": " worth",
  "8620": " sheath",
  "8621": " radius",
  "8622": " quickly",
  "8623": " enroll",
  "8624": " diagnostics",
  "8625": " penicillin",
  "8626": " calcification",
  "8627": "otechn",
  "8628": " operator",
  "8629": " manuscript",
  "8630": " leaf",
  "8631": " lith",
  "8632": " imag",
  "8633": " hypertrophy",
  "8634": " filtration",
  "8635": "anal",
  "8636": " og",
  "8637": " comprising",
  "8638": " bot",
  "8639": " arb",
  "8640": "ameth",
  "8641": " soon",
  "8642": " rins",
  "8643": " motifs",
  "8644": " declar",
  "8645": "irable",
  "8646": " warm",
  "8647": " parenchym",
  "8648": " driving",
  "8649": " captured",
  "8650": " bulk",
  "8651": "wards",
  "8652": "mal",
  "8653": " supra",
  "8654": " stopped",
  "8655": " spent",
  "8656": " roots",
  "8657": " preterm",
  "8658": " minimally",
  "8659": " maps",
  "8660": "rought",
  "8661": " tick",
  "8662": " static",
  "8663": " rejection",
  "8664": " province",
  "8665": " grid",
  "8666": " ectopic",
  "8667": "ushing",
  "8668": "rocyte",
  "8669": "ofacial",
  "8670": "enin",
  "8671": "0.5",
  "8672": " oa",
  "8673": " neo",
  "8674": "tg",
  "8675": "oqu",
  "8676": "ivariable",
  "8677": "cox",
  "8678": " protected",
  "8679": " explicit",
  "8680": " calibration",
  "8681": " ccl",
  "8682": "lab",
  "8683": " wells",
  "8684": " splen",
  "8685": " spindle",
  "8686": " sche",
  "8687": " rhythm",
  "8688": " gallbl",
  "8689": " extremities",
  "8690": " experts",
  "8691": " electroly",
  "8692": " characterize",
  "8693": "azol",
  "8694": " mosqu",
  "8695": " midline",
  "8696": " fibrillation",
  "8697": " environments",
  "8698": " ends",
  "8699": " accessible",
  "8700": "ragm",
  "8701": " marital",
  "8702": " flexible",
  "8703": " sputum",
  "8704": " offers",
  "8705": " leave",
  "8706": " dock",
  "8707": " colony",
  "8708": "{{",
  "8709": "ocortic",
  "8710": " evolutionary",
  "8711": " esi",
  "8712": "axel",
  "8713": "asome",
  "8714": " preserved",
  "8715": " moi",
  "8716": " mediastinal",
  "8717": " industry",
  "8718": " enrich",
  "8719": " clamp",
  "8720": " threatening",
  "8721": " solub",
  "8722": " selectivity",
  "8723": " proceed",
  "8724": " mitral",
  "8725": " mesh",
  "8726": " keeping",
  "8727": " kaplan",
  "8728": " hyperplasia",
  "8729": " epidural",
  "8730": " encoded",
  "8731": " withdrawal",
  "8732": " signed",
  "8733": " somat",
  "8734": " ligation",
  "8735": " islets",
  "8736": " codon",
  "8737": "vastatin",
  "8738": "110",
  "8739": " lib",
  "8740": " inherent",
  "8741": " continuously",
  "8742": "atation",
  "8743": "a1",
  "8744": " retinopathy",
  "8745": " resc",
  "8746": " ri",
  "8747": " proliferative",
  "8748": " copy",
  "8749": " atmosp",
  "8750": " appendix",
  "8751": " antiviral",
  "8752": " accounting",
  "8753": "rosp",
  "8754": " trich",
  "8755": " tab",
  "8756": " switch",
  "8757": " spi",
  "8758": " signalling",
  "8759": " reversible",
  "8760": " relief",
  "8761": " periodontitis",
  "8762": " paraffin",
  "8763": " colonies",
  "8764": " attenuation",
  "8765": "lishing",
  "8766": "ima",
  "8767": " refers",
  "8768": " prism",
  "8769": " pci",
  "8770": " october",
  "8771": "embrane",
  "8772": "aments",
  "8773": " sampled",
  "8774": " ske",
  "8775": " removing",
  "8776": " mdr",
  "8777": " encaps",
  "8778": " creating",
  "8779": " company",
  "8780": " chd",
  "8781": " cascade",
  "8782": "oblastoma",
  "8783": "nc",
  "8784": " shifts",
  "8785": " nutrient",
  "8786": " neutrophil",
  "8787": " custom",
  "8788": "iration",
  "8789": "hypert",
  "8790": " recess",
  "8791": " parenchyma",
  "8792": " mosquito",
  "8793": " infl",
  "8794": " gallbladder",
  "8795": " algorithms",
  "8796": " aliqu",
  "8797": " psychos",
  "8798": " implanted",
  "8799": " glycoprotein",
  "8800": " enlarge",
  "8801": " empt",
  "8802": " dic",
  "8803": " biosystems",
  "8804": " accounts",
  "8805": " pdb",
  "8806": " pathophysiology",
  "8807": " lot",
  "8808": " ipsilateral",
  "8809": "rating",
  "8810": " works",
  "8811": " testosterone",
  "8812": " specialized",
  "8813": " discl",
  "8814": " built",
  "8815": " atg",
  "8816": " alzheimer",
  "8817": "patients",
  "8818": " resorption",
  "8819": " rules",
  "8820": " latency",
  "8821": " joh",
  "8822": " experimentally",
  "8823": " eliminate",
  "8824": " building",
  "8825": " assume",
  "8826": " alkaline",
  "8827": "ulmonary",
  "8828": " scaffold",
  "8829": " pregnancies",
  "8830": " pkc",
  "8831": " ces",
  "8832": "ritin",
  "8833": "omere",
  "8834": " pod",
  "8835": " hind",
  "8836": " cysteine",
  "8837": " clone",
  "8838": "utive",
  "8839": "inction",
  "8840": " suc",
  "8841": " silver",
  "8842": " platelets",
  "8843": " phil",
  "8844": "osens",
  "8845": "ini",
  "8846": " percentile",
  "8847": " fox",
  "8848": " stirred",
  "8849": " pw",
  "8850": " master",
  "8851": " empirical",
  "8852": "ocyst",
  "8853": "nes",
  "8854": " walls",
  "8855": " sulfate",
  "8856": " diverg",
  "8857": " consumed",
  "8858": " climate",
  "8859": "ophore",
  "8860": "icts",
  "8861": " sweden",
  "8862": " schools",
  "8863": " passage",
  "8864": " partly",
  "8865": " immuno",
  "8866": " describes",
  "8867": " aggregates",
  "8868": " triglyceride",
  "8869": " describing",
  "8870": " mixing",
  "8871": " mu",
  "8872": "dm",
  "8873": "arges",
  "8874": " responded",
  "8875": " inconsist",
  "8876": " idiopathic",
  "8877": " gyrus",
  "8878": " dilated",
  "8879": " declaration",
  "8880": "ostomy",
  "8881": " unexpected",
  "8882": " trim",
  "8883": " mets",
  "8884": " leukocyte",
  "8885": " lid",
  "8886": " isot",
  "8887": " cris",
  "8888": " cephal",
  "8889": " aneurysms",
  "8890": "ifact",
  "8891": " individually",
  "8892": " foci",
  "8893": " complementary",
  "8894": " centered",
  "8895": "oto",
  "8896": " tender",
  "8897": " moving",
  "8898": " medicare",
  "8899": " figs",
  "8900": " cyclo",
  "8901": " curv",
  "8902": "oxylin",
  "8903": "eal",
  "8904": "burg",
  "8905": " parathyroid",
  "8906": " nav",
  "8907": " focusing",
  "8908": " dislocation",
  "8909": " discrete",
  "8910": " detector",
  "8911": " dehydrogen",
  "8912": " strengthen",
  "8913": " sham",
  "8914": " radiol",
  "8915": " leaving",
  "8916": " electric",
  "8917": " artifact",
  "8918": " tu",
  "8919": " neuropsych",
  "8920": " intermittent",
  "8921": " enables",
  "8922": " dros",
  "8923": " prp",
  "8924": " phy",
  "8925": " anomalies",
  "8926": "appro",
  "8927": " vitreous",
  "8928": " satisfactory",
  "8929": " nsa",
  "8930": " critically",
  "8931": " amph",
  "8932": "glut",
  "8933": " underest",
  "8934": " tbi",
  "8935": " scenario",
  "8936": " interferon",
  "8937": " faculty",
  "8938": " contributions",
  "8939": " bs",
  "8940": " splicing",
  "8941": " prevents",
  "8942": " histor",
  "8943": " drople",
  "8944": " conven",
  "8945": " 160",
  "8946": " ventral",
  "8947": " sera",
  "8948": " satisfied",
  "8949": " peroxidase",
  "8950": " intensities",
  "8951": " harvested",
  "8952": " ferritin",
  "8953": " disad",
  "8954": " bru",
  "8955": " august",
  "8956": " stone",
  "8957": " linking",
  "8958": " leukocytes",
  "8959": " exert",
  "8960": " esophagus",
  "8961": " circumst",
  "8962": " adul",
  "8963": " originally",
  "8964": " lupus",
  "8965": " hold",
  "8966": " ancest",
  "8967": " anatomy",
  "8968": "isciplinary",
  "8969": " wear",
  "8970": " sized",
  "8971": " orthodontic",
  "8972": " occasionally",
  "8973": " manifestation",
  "8974": " hels",
  "8975": " geometry",
  "8976": " acidic",
  "8977": "inki",
  "8978": " tai",
  "8979": " supine",
  "8980": " sufficiently",
  "8981": " progenitor",
  "8982": " preservation",
  "8983": " inability",
  "8984": " ibd",
  "8985": " bus",
  "8986": "ioned",
  "8987": " staphyl",
  "8988": " simpl",
  "8989": " saw",
  "8990": " polymerization",
  "8991": " pfs",
  "8992": " lengths",
  "8993": " lad",
  "8994": " counted",
  "8995": " combining",
  "8996": " virul",
  "8997": " pseudo",
  "8998": " gestation",
  "8999": " cha",
  "9000": " canine",
  "9001": "uents",
  "9002": "amb",
  "9003": " plasmin",
  "9004": " helps",
  "9005": " chick",
  "9006": " auton",
  "9007": " hispan",
  "9008": " helsinki",
  "9009": " glycer",
  "9010": " emergence",
  "9011": " alternatively",
  "9012": " ape",
  "9013": " 1993",
  "9014": "qol",
  "9015": "ofib",
  "9016": "iner",
  "9017": " injured",
  "9018": " disadvant",
  "9019": " um",
  "9020": "icious",
  "9021": " sharp",
  "9022": "ops",
  "9023": "oneph",
  "9024": "004",
  "9025": " luc",
  "9026": " grafts",
  "9027": " esrd",
  "9028": " diagnose",
  "9029": " cdk",
  "9030": "static",
  "9031": "ochrom",
  "9032": "ingual",
  "9033": "igo",
  "9034": " intended",
  "9035": "mg",
  "9036": " toxin",
  "9037": " presumably",
  "9038": " partner",
  "9039": " instructed",
  "9040": "vasive",
  "9041": " provision",
  "9042": " operations",
  "9043": " nodule",
  "9044": " nano",
  "9045": " counseling",
  "9046": " cognition",
  "9047": "ochrome",
  "9048": " trypsin",
  "9049": " sib",
  "9050": " nove",
  "9051": " infert",
  "9052": " inver",
  "9053": " homology",
  "9054": " hernia",
  "9055": " gol",
  "9056": " efficiently",
  "9057": " doing",
  "9058": " contour",
  "9059": " atherosclerotic",
  "9060": " rom",
  "9061": "oted",
  "9062": "lectomy",
  "9063": " subd",
  "9064": " resected",
  "9065": " radicals",
  "9066": " ont",
  "9067": " hybridization",
  "9068": " erk",
  "9069": " cigarette",
  "9070": " cation",
  "9071": " pts",
  "9072": " meningitis",
  "9073": " crc",
  "9074": " comorbidity",
  "9075": " cess",
  "9076": "ift",
  "9077": " unch",
  "9078": " synth",
  "9079": " premolar",
  "9080": " penetration",
  "9081": " microarray",
  "9082": " freed",
  "9083": " fibrous",
  "9084": " fabric",
  "9085": " effusion",
  "9086": " distort",
  "9087": " coordinates",
  "9088": " binary",
  "9089": " 800",
  "9090": "ifiable",
  "9091": " semi",
  "9092": " retrieved",
  "9093": " likewise",
  "9094": " cra",
  "9095": "uter",
  "9096": "bone",
  "9097": " lf",
  "9098": " ine",
  "9099": " iol",
  "9100": " glutath",
  "9101": " directions",
  "9102": " compan",
  "9103": " syndromes",
  "9104": " stool",
  "9105": " painful",
  "9106": " infer",
  "9107": " fruit",
  "9108": " follicular",
  "9109": " evaluations",
  "9110": "ocin",
  "9111": " proxim",
  "9112": " mda",
  "9113": " intraocular",
  "9114": " gf",
  "9115": " epidermal",
  "9116": " constraints",
  "9117": "omeg",
  "9118": " superv",
  "9119": " salmon",
  "9120": " mitotic",
  "9121": " interfere",
  "9122": " construction",
  "9123": " classic",
  "9124": " chole",
  "9125": " tried",
  "9126": " sedation",
  "9127": " rms",
  "9128": " posit",
  "9129": " naturally",
  "9130": " dead",
  "9131": " apparently",
  "9132": " today",
  "9133": " sensation",
  "9134": " rct",
  "9135": " photograph",
  "9136": " drive",
  "9137": " doc",
  "9138": " cyan",
  "9139": " bill",
  "9140": " atomic",
  "9141": " adenoma",
  "9142": "ullary",
  "9143": "mented",
  "9144": " kv",
  "9145": " incorporation",
  "9146": " immunoglobulin",
  "9147": " hypothyroidism",
  "9148": " enlargement",
  "9149": " diaph",
  "9150": " cortisol",
  "9151": " citrate",
  "9152": " bup",
  "9153": " attributable",
  "9154": " hemodialysis",
  "9155": " genital",
  "9156": " endovascular",
  "9157": "untary",
  "9158": "phone",
  "9159": "ionic",
  "9160": " waves",
  "9161": " sporad",
  "9162": " scope",
  "9163": " pent",
  "9164": " lag",
  "9165": " defense",
  "9166": " cours",
  "9167": " cessation",
  "9168": "platin",
  "9169": "pend",
  "9170": " viewed",
  "9171": " reporter",
  "9172": " pedicle",
  "9173": " islet",
  "9174": " determinants",
  "9175": " depicted",
  "9176": " dyst",
  "9177": " cys",
  "9178": " abl",
  "9179": "arum",
  "9180": " synapses",
  "9181": " psychosocial",
  "9182": " pn",
  "9183": " outl",
  "9184": " lb",
  "9185": " cpr",
  "9186": "ulsion",
  "9187": " suffer",
  "9188": " reflux",
  "9189": " poison",
  "9190": " immunization",
  "9191": " gsk",
  "9192": " essentially",
  "9193": " erad",
  "9194": " ceramic",
  "9195": ".[",
  "9196": " endemic",
  "9197": " deposits",
  "9198": " concerned",
  "9199": " anesthetic",
  "9200": " agonists",
  "9201": " suspic",
  "9202": " scanner",
  "9203": "etheless",
  "9204": "cl2",
  "9205": "bow",
  "9206": "amed",
  "9207": " star",
  "9208": " reflecting",
  "9209": " preceding",
  "9210": " irrit",
  "9211": " enrollment",
  "9212": " antif",
  "9213": "onitrile",
  "9214": "olving",
  "9215": "ience",
  "9216": " sympathetic",
  "9217": " preparations",
  "9218": " phenyl",
  "9219": " nonetheless",
  "9220": " nitric",
  "9221": " nation",
  "9222": " mono",
  "9223": " menstr",
  "9224": " gynec",
  "9225": " endoscopy",
  "9226": "ulose",
  "9227": "ius",
  "9228": " transmitted",
  "9229": " normalization",
  "9230": " helic",
  "9231": " aspirin",
  "9232": " ubiquit",
  "9233": " seeking",
  "9234": " sevent",
  "9235": " postmen",
  "9236": " phe",
  "9237": " immunohistochemistry",
  "9238": " immunost",
  "9239": "nfl",
  "9240": "ef",
  "9241": "asm",
  "9242": " pcs",
  "9243": " moderately",
  "9244": " ingestion",
  "9245": " immunosuppressive",
  "9246": " herein",
  "9247": " funding",
  "9248": " expensive",
  "9249": "uis",
  "9250": "itr",
  "9251": "irs",
  "9252": "ibrated",
  "9253": "ette",
  "9254": "cor",
  "9255": " oriented",
  "9256": " jaw",
  "9257": "ua",
  "9258": " shed",
  "9259": " nin",
  "9260": " molars",
  "9261": " indirectly",
  "9262": " inpatient",
  "9263": " fitting",
  "9264": " bring",
  "9265": " biotin",
  "9266": " brought",
  "9267": " wc",
  "9268": " vulnerable",
  "9269": " spher",
  "9270": " microbiota",
  "9271": " fn",
  "9272": " depr",
  "9273": " becoming",
  "9274": " activates",
  "9275": "mentioned",
  "9276": "erate",
  "9277": " overlapping",
  "9278": " mw",
  "9279": " imbal",
  "9280": " blinded",
  "9281": " remarkable",
  "9282": " ester",
  "9283": " embolization",
  "9284": " antagonists",
  "9285": " turnover",
  "9286": " tended",
  "9287": " objects",
  "9288": "rons",
  "9289": "inous",
  "9290": "hn",
  "9291": "aturation",
  "9292": " sediment",
  "9293": " migraine",
  "9294": " dut",
  "9295": " collabor",
  "9296": " clot",
  "9297": " properly",
  "9298": " propose",
  "9299": " nether",
  "9300": " impression",
  "9301": " foss",
  "9302": "obacteria",
  "9303": "aryng",
  "9304": " los",
  "9305": " exploration",
  "9306": " colonic",
  "9307": " calif",
  "9308": " aims",
  "9309": " accompany",
  "9310": "urrences",
  "9311": "har",
  "9312": " regulator",
  "9313": " numerical",
  "9314": " cytotoxicity",
  "9315": " conformations",
  "9316": " anaesthesia",
  "9317": "inum",
  "9318": " vast",
  "9319": " seemed",
  "9320": "wan",
  "9321": "entan",
  "9322": " utilizing",
  "9323": " superoxide",
  "9324": " november",
  "9325": " glutathione",
  "9326": " excised",
  "9327": " eggs",
  "9328": " dav",
  "9329": " bronchial",
  "9330": "irc",
  "9331": " uncontrol",
  "9332": " thrombocyt",
  "9333": " suspicion",
  "9334": " reagents",
  "9335": " integral",
  "9336": " diets",
  "9337": " coinc",
  "9338": "rane",
  "9339": "availability",
  "9340": " resusc",
  "9341": " mex",
  "9342": " igm",
  "9343": " endometrial",
  "9344": " dehydrogenase",
  "9345": "peptide",
  "9346": "oce",
  "9347": "lit",
  "9348": "alc",
  "9349": "450",
  "9350": " evoked",
  "9351": " enhances",
  "9352": " discontinuation",
  "9353": " cisplatin",
  "9354": " bars",
  "9355": " bid",
  "9356": "oney",
  "9357": "inance",
  "9358": " tric",
  "9359": " predictions",
  "9360": " prenatal",
  "9361": " opinion",
  "9362": " firm",
  "9363": " consultation",
  "9364": " psoriasis",
  "9365": " mci",
  "9366": " courses",
  "9367": " caud",
  "9368": " bright",
  "9369": " bolus",
  "9370": " bad",
  "9371": "ipital",
  "9372": " engineering",
  "9373": " assistance",
  "9374": "vae",
  "9375": "oblasts",
  "9376": " vanc",
  "9377": " fill",
  "9378": " carbohydrate",
  "9379": " cip",
  "9380": " belonging",
  "9381": "icans",
  "9382": "eterm",
  "9383": "assay",
  "9384": " unchanged",
  "9385": " imposs",
  "9386": " bag",
  "9387": " hysterectomy",
  "9388": "rics",
  "9389": "otechnology",
  "9390": "onyl",
  "9391": " pellet",
  "9392": " ld",
  "9393": " dividing",
  "9394": " dbp",
  "9395": " crystals",
  "9396": " competitive",
  "9397": " bay",
  "9398": " 135",
  "9399": "rophot",
  "9400": "ona",
  "9401": "300",
  "9402": " relatives",
  "9403": " quantify",
  "9404": " discrimination",
  "9405": " apoe",
  "9406": " accompl",
  "9407": "xa",
  "9408": "bruary",
  "9409": " veins",
  "9410": " projection",
  "9411": " named",
  "9412": " multivariable",
  "9413": " kim",
  "9414": " generating",
  "9415": " fric",
  "9416": " dyslipidemia",
  "9417": " bridge",
  "9418": " adipocytes",
  "9419": "arse",
  "9420": "abine",
  "9421": " uterus",
  "9422": " translocation",
  "9423": " personality",
  "9424": " exhibits",
  "9425": " caregivers",
  "9426": " arsenic",
  "9427": " 1980",
  "9428": "ifen",
  "9429": "arynx",
  "9430": " transmembrane",
  "9431": " termed",
  "9432": " santa",
  "9433": " puber",
  "9434": " plans",
  "9435": " ppar",
  "9436": " medicines",
  "9437": " covering",
  "9438": " conce",
  "9439": " boundary",
  "9440": "ographics",
  "9441": " recombination",
  "9442": " nodular",
  "9443": " geographic",
  "9444": " fbs",
  "9445": "usp",
  "9446": "odal",
  "9447": "ishing",
  "9448": "ceeding",
  "9449": " warf",
  "9450": " spectrophot",
  "9451": " hypers",
  "9452": " ensemb",
  "9453": " district",
  "9454": "hran",
  "9455": "df",
  "9456": " rigid",
  "9457": " datasets",
  "9458": " cub",
  "9459": "osition",
  "9460": "inephrine",
  "9461": "ception",
  "9462": "bank",
  "9463": " leaves",
  "9464": " dv",
  "9465": " connections",
  "9466": " antid",
  "9467": "while",
  "9468": "syn",
  "9469": "gene",
  "9470": "epit",
  "9471": "600",
  "9472": " wbc",
  "9473": " unrelated",
  "9474": " spir",
  "9475": " notion",
  "9476": " muscul",
  "9477": " harmon",
  "9478": " endpoint",
  "9479": " detachment",
  "9480": " continues",
  "9481": " contra",
  "9482": " amput",
  "9483": "otransferase",
  "9484": " peer",
  "9485": " netherlands",
  "9486": " disturbance",
  "9487": " dispersion",
  "9488": " denture",
  "9489": " arteri",
  "9490": " aberrant",
  "9491": " abilities",
  "9492": "ref",
  "9493": " upstream",
  "9494": " pic",
  "9495": " neurodegenerative",
  "9496": " interacting",
  "9497": " coded",
  "9498": " circumstances",
  "9499": " acceptance",
  "9500": "points",
  "9501": "ofluorescence",
  "9502": "nutrition",
  "9503": "bach",
  "9504": " orally",
  "9505": " oncology",
  "9506": " manage",
  "9507": " hematoxylin",
  "9508": " eastern",
  "9509": " cab",
  "9510": " ala",
  "9511": "zing",
  "9512": "thood",
  "9513": " scheduled",
  "9514": " military",
  "9515": " mun",
  "9516": " entrop",
  "9517": " clinician",
  "9518": " rnfl",
  "9519": " qiagen",
  "9520": " postmenopausal",
  "9521": " say",
  "9522": " reads",
  "9523": " proximity",
  "9524": " irresp",
  "9525": " hrms",
  "9526": "otom",
  "9527": "cil",
  "9528": "atibility",
  "9529": " organizations",
  "9530": " mmse",
  "9531": " ibm",
  "9532": " february",
  "9533": " digestion",
  "9534": " calcd",
  "9535": " antidepressants",
  "9536": " aqu",
  "9537": "urane",
  "9538": "ato",
  "9539": " ppv",
  "9540": " establishing",
  "9541": " entity",
  "9542": " defective",
  "9543": " allergic",
  "9544": " erg",
  "9545": " teac",
  "9546": " placenta",
  "9547": " encoun",
  "9548": " attending",
  "9549": " ald",
  "9550": " 1991",
  "9551": "rast",
  "9552": "omotor",
  "9553": "asic",
  "9554": " want",
  "9555": " revascular",
  "9556": " occlusal",
  "9557": " hif",
  "9558": " fitted",
  "9559": "yel",
  "9560": "oul",
  "9561": "catenin",
  "9562": "anium",
  "9563": " reduct",
  "9564": " plaus",
  "9565": " phosphorylated",
  "9566": " nmol",
  "9567": " flag",
  "9568": " cup",
  "9569": " wilcox",
  "9570": " que",
  "9571": " osa",
  "9572": " opportunities",
  "9573": " grades",
  "9574": " goat",
  "9575": " cutting",
  "9576": "ano",
  "9577": "ault",
  "9578": " verify",
  "9579": " trust",
  "9580": " sector",
  "9581": " positioning",
  "9582": " neurotrans",
  "9583": " expenditure",
  "9584": " card",
  "9585": "izz",
  "9586": "eties",
  "9587": " notch",
  "9588": " lane",
  "9589": " chromosomal",
  "9590": " articular",
  "9591": "rolimus",
  "9592": "150",
  "9593": " spaces",
  "9594": " magnet",
  "9595": "pcr",
  "9596": "iguous",
  "9597": "iabetic",
  "9598": "arity",
  "9599": " sporadic",
  "9600": " perm",
  "9601": " genetically",
  "9602": " feeling",
  "9603": "ptions",
  "9604": "itors",
  "9605": "appropri",
  "9606": " trem",
  "9607": " synthase",
  "9608": " spik",
  "9609": " rab",
  "9610": " neoplasm",
  "9611": " larvae",
  "9612": " irrespective",
  "9613": " copper",
  "9614": " choroidal",
  "9615": "itoneum",
  "9616": "ees",
  "9617": "dependent",
  "9618": " spite",
  "9619": " regularly",
  "9620": " pcos",
  "9621": " indicative",
  "9622": " inos",
  "9623": " grouped",
  "9624": " econ",
  "9625": " deal",
  "9626": " backbone",
  "9627": " alanine",
  "9628": "mediated",
  "9629": "eper",
  "9630": " transporter",
  "9631": " hypotension",
  "9632": " hier",
  "9633": " going",
  "9634": " embolism",
  "9635": " cytochrome",
  "9636": " comes",
  "9637": " clip",
  "9638": " appar",
  "9639": "icians",
  "9640": "blast",
  "9641": "atonin",
  "9642": "aster",
  "9643": " pace",
  "9644": " nodal",
  "9645": " insert",
  "9646": " hypo",
  "9647": " fmri",
  "9648": "raind",
  "9649": " till",
  "9650": " slope",
  "9651": " randomization",
  "9652": " interrup",
  "9653": " deline",
  "9654": " caucasian",
  "9655": "usk",
  "9656": "ostatic",
  "9657": "operation",
  "9658": "nk",
  "9659": " wilcoxon",
  "9660": " triang",
  "9661": " tehran",
  "9662": " retard",
  "9663": " nom",
  "9664": " microtub",
  "9665": " looking",
  "9666": " lr",
  "9667": " discrepancy",
  "9668": " dispar",
  "9669": " circuit",
  "9670": " breath",
  "9671": " ami",
  "9672": " acetone",
  "9673": "clonal",
  "9674": "mes",
  "9675": "ivac",
  "9676": " translational",
  "9677": " legal",
  "9678": " lives",
  "9679": " hierarch",
  "9680": " consuming",
  "9681": "tures",
  "9682": "elles",
  "9683": " orange",
  "9684": " nigeria",
  "9685": " clarify",
  "9686": " adulthood",
  "9687": " visited",
  "9688": " vill",
  "9689": " recordings",
  "9690": " perfect",
  "9691": " inappropri",
  "9692": " fungi",
  "9693": " designated",
  "9694": " demographics",
  "9695": " confer",
  "9696": " concepts",
  "9697": " titers",
  "9698": " posture",
  "9699": " hydroxyl",
  "9700": " gsh",
  "9701": " employment",
  "9702": "ifferent",
  "9703": "fluor",
  "9704": "${",
  "9705": " pree",
  "9706": " opn",
  "9707": " graded",
  "9708": " ug",
  "9709": "kb",
  "9710": "cod",
  "9711": " vancomycin",
  "9712": " spontaneously",
  "9713": " organized",
  "9714": " hepatocytes",
  "9715": " geographical",
  "9716": " fecal",
  "9717": " exons",
  "9718": " anthropometric",
  "9719": "azine",
  "9720": " mpa",
  "9721": " intention",
  "9722": " hdac",
  "9723": " haemat",
  "9724": " entirely",
  "9725": " cyclic",
  "9726": " calculating",
  "9727": "vert",
  "9728": " swim",
  "9729": " served",
  "9730": " mononuclear",
  "9731": " insights",
  "9732": " immunological",
  "9733": " ejection",
  "9734": " acryl",
  "9735": "vern",
  "9736": " spots",
  "9737": " schw",
  "9738": " objectives",
  "9739": " constitute",
  "9740": " arrays",
  "9741": " analogues",
  "9742": " 115",
  "9743": " vt",
  "9744": " tachycardia",
  "9745": " supportive",
  "9746": " radiography",
  "9747": " infiltrate",
  "9748": " agarose",
  "9749": "ellite",
  "9750": "cyt",
  "9751": "ardial",
  "9752": "aldehyde",
  "9753": " stones",
  "9754": " monotherapy",
  "9755": " enrichment",
  "9756": " dsm",
  "9757": " descending",
  "9758": "gluc",
  "9759": " tone",
  "9760": " immature",
  "9761": " conservation",
  "9762": " bdnf",
  "9763": " rheumatoid",
  "9764": " policies",
  "9765": " plotted",
  "9766": " mesenteric",
  "9767": " isomer",
  "9768": " conjunction",
  "9769": " blockade",
  "9770": " apparatus",
  "9771": "ulus",
  "9772": "onical",
  "9773": "itate",
  "9774": " vertebr",
  "9775": " resemb",
  "9776": " rcc",
  "9777": " provider",
  "9778": " mapk",
  "9779": " hydrog",
  "9780": " blockers",
  "9781": " analgesia",
  "9782": "iciencies",
  "9783": " thermo",
  "9784": " terminus",
  "9785": " serotonin",
  "9786": " sarcoma",
  "9787": " revised",
  "9788": " polyclonal",
  "9789": " oxidase",
  "9790": " neurof",
  "9791": " links",
  "9792": " impossible",
  "9793": " crow",
  "9794": " biofilm",
  "9795": " southern",
  "9796": " polymers",
  "9797": " interc",
  "9798": " innov",
  "9799": " functionally",
  "9800": " eliminated",
  "9801": " differentially",
  "9802": " brackets",
  "9803": " adolescent",
  "9804": "wt",
  "9805": " stents",
  "9806": " rif",
  "9807": " opposed",
  "9808": " hbs",
  "9809": " architecture",
  "9810": "uron",
  "9811": "nr",
  "9812": "inder",
  "9813": "auss",
  "9814": " rm",
  "9815": " influencing",
  "9816": " foundation",
  "9817": " aligned",
  "9818": "roni",
  "9819": "ously",
  "9820": "ophen",
  "9821": "ellum",
  "9822": "cein",
  "9823": " willing",
  "9824": " mab",
  "9825": " hyal",
  "9826": " colonization",
  "9827": " collaboration",
  "9828": " clones",
  "9829": "ceptor",
  "9830": " rim",
  "9831": " nave",
  "9832": " films",
  "9833": " carrier",
  "9834": "rontal",
  "9835": "opoi",
  "9836": " splenic",
  "9837": " spectrometry",
  "9838": " serine",
  "9839": " prove",
  "9840": " periodic",
  "9841": " transfection",
  "9842": " trimes",
  "9843": " reader",
  "9844": " melatonin",
  "9845": " mcp",
  "9846": " incomp",
  "9847": " evidenced",
  "9848": " choose",
  "9849": "amino",
  "9850": " tracking",
  "9851": " sar",
  "9852": " phon",
  "9853": " nscl",
  "9854": " freedom",
  "9855": " dramatically",
  "9856": " disinf",
  "9857": " bonfer",
  "9858": " anticoagul",
  "9859": "ishman",
  "9860": " retrospectively",
  "9861": " reward",
  "9862": " profound",
  "9863": " nem",
  "9864": " illustrates",
  "9865": " formalin",
  "9866": " formulations",
  "9867": " chip",
  "9868": " baby",
  "9869": "rotomy",
  "9870": "andial",
  "9871": " talk",
  "9872": " sequenced",
  "9873": " nb",
  "9874": " endoc",
  "9875": " dilatation",
  "9876": " decay",
  "9877": " biomed",
  "9878": "isk",
  "9879": "hl",
  "9880": "gb",
  "9881": "400",
  "9882": " plain",
  "9883": " lymphoid",
  "9884": " lymphatic",
  "9885": " copies",
  "9886": "ola",
  "9887": "ifluor",
  "9888": " tms",
[...]
